{
  "version": "1.0",
  "truncation": null,
  "padding": null,
  "added_tokens": [
    {
      "id": 0,
      "content": "[PAD]",
      "single_word": false,
      "lstrip": false,
      "rstrip": false,
      "normalized": false,
      "special": true
    },
    {
      "id": 1,
      "content": "[CLS]",
      "single_word": false,
      "lstrip": false,
      "rstrip": false,
      "normalized": false,
      "special": true
    },
    {
      "id": 2,
      "content": "[SEP]",
      "single_word": false,
      "lstrip": false,
      "rstrip": false,
      "normalized": false,
      "special": true
    },
    {
      "id": 3,
      "content": "[UNK]",
      "single_word": false,
      "lstrip": false,
      "rstrip": false,
      "normalized": false,
      "special": true
    },
    {
      "id": 4,
      "content": "[MASK]",
      "single_word": false,
      "lstrip": false,
      "rstrip": false,
      "normalized": false,
      "special": true
    }
  ],
  "normalizer": null,
  "pre_tokenizer": {
    "type": "Whitespace"
  },
  "post_processor": null,
  "decoder": {
    "type": "ByteLevel",
    "add_prefix_space": true,
    "trim_offsets": true,
    "use_regex": true
  },
  "model": {
    "type": "BPE",
    "dropout": null,
    "unk_token": "[UNK]",
    "continuing_subword_prefix": null,
    "end_of_word_suffix": null,
    "fuse_unk": false,
    "byte_fallback": false,
    "ignore_merges": false,
    "vocab": {
      "[PAD]": 0,
      "[CLS]": 1,
      "[SEP]": 2,
      "[UNK]": 3,
      "[MASK]": 4,
      "!": 5,
      "\"": 6,
      "#": 7,
      "$": 8,
      "%": 9,
      "&": 10,
      "'": 11,
      "(": 12,
      ")": 13,
      "*": 14,
      "+": 15,
      ",": 16,
      "-": 17,
      ".": 18,
      "/": 19,
      "0": 20,
      "1": 21,
      "2": 22,
      "3": 23,
      "4": 24,
      "5": 25,
      "6": 26,
      "7": 27,
      "8": 28,
      "9": 29,
      ":": 30,
      ";": 31,
      "<": 32,
      "=": 33,
      ">": 34,
      "?": 35,
      "@": 36,
      "A": 37,
      "B": 38,
      "C": 39,
      "D": 40,
      "E": 41,
      "F": 42,
      "G": 43,
      "H": 44,
      "I": 45,
      "J": 46,
      "K": 47,
      "L": 48,
      "M": 49,
      "N": 50,
      "O": 51,
      "P": 52,
      "Q": 53,
      "R": 54,
      "S": 55,
      "T": 56,
      "U": 57,
      "V": 58,
      "W": 59,
      "X": 60,
      "Y": 61,
      "Z": 62,
      "[": 63,
      "\\": 64,
      "]": 65,
      "^": 66,
      "_": 67,
      "`": 68,
      "a": 69,
      "b": 70,
      "c": 71,
      "d": 72,
      "e": 73,
      "f": 74,
      "g": 75,
      "h": 76,
      "i": 77,
      "j": 78,
      "k": 79,
      "l": 80,
      "m": 81,
      "n": 82,
      "o": 83,
      "p": 84,
      "q": 85,
      "r": 86,
      "s": 87,
      "t": 88,
      "u": 89,
      "v": 90,
      "w": 91,
      "x": 92,
      "y": 93,
      "z": 94,
      "{": 95,
      "|": 96,
      "}": 97,
      "~": 98,
      "¡": 99,
      "¢": 100,
      "£": 101,
      "¤": 102,
      "¥": 103,
      "¦": 104,
      "§": 105,
      "¨": 106,
      "©": 107,
      "ª": 108,
      "«": 109,
      "¬": 110,
      "®": 111,
      "¯": 112,
      "°": 113,
      "±": 114,
      "²": 115,
      "³": 116,
      "´": 117,
      "µ": 118,
      "¶": 119,
      "·": 120,
      "¸": 121,
      "¹": 122,
      "º": 123,
      "»": 124,
      "¼": 125,
      "½": 126,
      "¾": 127,
      "¿": 128,
      "À": 129,
      "Á": 130,
      "Â": 131,
      "Ã": 132,
      "Ä": 133,
      "Å": 134,
      "Æ": 135,
      "Ç": 136,
      "È": 137,
      "É": 138,
      "Ê": 139,
      "Ë": 140,
      "Ì": 141,
      "Í": 142,
      "Î": 143,
      "Ï": 144,
      "Ð": 145,
      "Ñ": 146,
      "Ò": 147,
      "Ó": 148,
      "Ô": 149,
      "Õ": 150,
      "Ö": 151,
      "×": 152,
      "Ø": 153,
      "Ù": 154,
      "Ú": 155,
      "Û": 156,
      "Ü": 157,
      "Ý": 158,
      "Þ": 159,
      "ß": 160,
      "à": 161,
      "á": 162,
      "â": 163,
      "ã": 164,
      "ä": 165,
      "å": 166,
      "æ": 167,
      "ç": 168,
      "è": 169,
      "é": 170,
      "ê": 171,
      "ë": 172,
      "ì": 173,
      "í": 174,
      "î": 175,
      "ï": 176,
      "ð": 177,
      "ñ": 178,
      "ò": 179,
      "ó": 180,
      "ô": 181,
      "õ": 182,
      "ö": 183,
      "÷": 184,
      "ø": 185,
      "ù": 186,
      "ú": 187,
      "û": 188,
      "ü": 189,
      "ý": 190,
      "þ": 191,
      "ÿ": 192,
      "Ā": 193,
      "ā": 194,
      "Ă": 195,
      "ă": 196,
      "Ą": 197,
      "ą": 198,
      "Ć": 199,
      "ć": 200,
      "Ĉ": 201,
      "ĉ": 202,
      "Ċ": 203,
      "ċ": 204,
      "Č": 205,
      "č": 206,
      "Ď": 207,
      "ď": 208,
      "Đ": 209,
      "đ": 210,
      "Ē": 211,
      "ē": 212,
      "Ĕ": 213,
      "ĕ": 214,
      "Ė": 215,
      "ė": 216,
      "Ę": 217,
      "ę": 218,
      "Ě": 219,
      "ě": 220,
      "Ĝ": 221,
      "ĝ": 222,
      "Ğ": 223,
      "ğ": 224,
      "Ġ": 225,
      "ġ": 226,
      "Ģ": 227,
      "ģ": 228,
      "Ĥ": 229,
      "ĥ": 230,
      "Ħ": 231,
      "ħ": 232,
      "Ĩ": 233,
      "ĩ": 234,
      "Ī": 235,
      "ī": 236,
      "Ĭ": 237,
      "ĭ": 238,
      "Į": 239,
      "į": 240,
      "İ": 241,
      "ı": 242,
      "Ĳ": 243,
      "ĳ": 244,
      "Ĵ": 245,
      "ĵ": 246,
      "Ķ": 247,
      "ķ": 248,
      "ĸ": 249,
      "Ĺ": 250,
      "ĺ": 251,
      "Ļ": 252,
      "ļ": 253,
      "Ľ": 254,
      "ľ": 255,
      "Ŀ": 256,
      "ŀ": 257,
      "Ł": 258,
      "ł": 259,
      "Ń": 260,
      "ū": 261,
      "ƪ": 262,
      "ǐ": 263,
      "ǔ": 264,
      "ə": 265,
      "ʌ": 266,
      "ʔ": 267,
      "ʕ": 268,
      "˄": 269,
      "ˇ": 270,
      "ˉ": 271,
      "ˊ": 272,
      "ˋ": 273,
      "ˍ": 274,
      "ˑ": 275,
      "˙": 276,
      "˳": 277,
      "̀": 278,
      "́": 279,
      "̂": 280,
      "̃": 281,
      "̄": 282,
      "̅": 283,
      "̆": 284,
      "̇": 285,
      "̈": 286,
      "̉": 287,
      "̊": 288,
      "̋": 289,
      "̍": 290,
      "̐": 291,
      "̑": 292,
      "̒": 293,
      "̘": 294,
      "̚": 295,
      "̛": 296,
      "̜": 297,
      "̝": 298,
      "̞": 299,
      "̟": 300,
      "̠": 301,
      "̣": 302,
      "̤": 303,
      "̥": 304,
      "̨": 305,
      "̩": 306,
      "̪": 307,
      "̫": 308,
      "̬": 309,
      "̮": 310,
      "̯": 311,
      "̰": 312,
      "̱": 313,
      "̲": 314,
      "̳": 315,
      "̴": 316,
      "̶": 317,
      "̷": 318,
      "̸": 319,
      "̹": 320,
      "̺": 321,
      "̻": 322,
      "̼": 323,
      "̾": 324,
      "͂": 325,
      "͇": 326,
      "͈": 327,
      "͉": 328,
      "͌": 329,
      "͎": 330,
      "͐": 331,
      "͑": 332,
      "͒": 333,
      "͕": 334,
      "͖": 335,
      "͗": 336,
      "͘": 337,
      "͙": 338,
      "͚": 339,
      "͛": 340,
      "͞": 341,
      "͟": 342,
      "͠": 343,
      "͡": 344,
      "͢": 345,
      "ͣ": 346,
      "ͤ": 347,
      "ͥ": 348,
      "ͦ": 349,
      "ͧ": 350,
      "ͩ": 351,
      "ͭ": 352,
      "Γ": 353,
      "Δ": 354,
      "Θ": 355,
      "Σ": 356,
      "Ψ": 357,
      "α": 358,
      "β": 359,
      "γ": 360,
      "δ": 361,
      "ε": 362,
      "ζ": 363,
      "η": 364,
      "θ": 365,
      "ι": 366,
      "κ": 367,
      "λ": 368,
      "μ": 369,
      "ν": 370,
      "ξ": 371,
      "ο": 372,
      "π": 373,
      "ρ": 374,
      "σ": 375,
      "τ": 376,
      "υ": 377,
      "φ": 378,
      "χ": 379,
      "ψ": 380,
      "ω": 381,
      "ϵ": 382,
      "϶": 383,
      "Д": 384,
      "Н": 385,
      "П": 386,
      "С": 387,
      "Э": 388,
      "Я": 389,
      "а": 390,
      "б": 391,
      "в": 392,
      "г": 393,
      "д": 394,
      "е": 395,
      "ж": 396,
      "з": 397,
      "и": 398,
      "й": 399,
      "к": 400,
      "л": 401,
      "м": 402,
      "н": 403,
      "о": 404,
      "п": 405,
      "р": 406,
      "с": 407,
      "т": 408,
      "у": 409,
      "ф": 410,
      "х": 411,
      "ц": 412,
      "ч": 413,
      "ш": 414,
      "щ": 415,
      "ъ": 416,
      "ы": 417,
      "ь": 418,
      "э": 419,
      "ю": 420,
      "я": 421,
      "ё": 422,
      "҉": 423,
      "Ծ": 424,
      "ऀ": 425,
      "ु": 426,
      "ू": 427,
      "॰": 428,
      "ੁ": 429,
      "ૅ": 430,
      "ૢ": 431,
      "౪": 432,
      "ෆ": 433,
      "ก": 434,
      "ข": 435,
      "ง": 436,
      "จ": 437,
      "ช": 438,
      "ด": 439,
      "ท": 440,
      "ป": 441,
      "ม": 442,
      "ล": 443,
      "ส": 444,
      "ห": 445,
      "อ": 446,
      "า": 447,
      "ิ": 448,
      "เ": 449,
      "ใ": 450,
      "ไ": 451,
      "้": 452,
      "๑": 453,
      "ຶ": 454,
      "་": 455,
      "༎": 456,
      "༝": 457,
      "༼": 458,
      "༽": 459,
      "ཀ": 460,
      "ག": 461,
      "ང": 462,
      "པ": 463,
      "ཕ": 464,
      "བ": 465,
      "ཛ": 466,
      "ཟ": 467,
      "ར": 468,
      "ས": 469,
      "ཧ": 470,
      "ོ": 471,
      "ྡ": 472,
      "ྱ": 473,
      "Ⴚ": 474,
      "Ⴢ": 475,
      "ტ": 476,
      "ᄗ": 477,
      "ᐖ": 478,
      "ᔒ": 479,
      "ᘑ": 480,
      "ᘗ": 481,
      "ᘯ": 482,
      "᜖": 483,
      "ᴗ": 484,
      "ḃ": 485,
      "–": 486,
      "—": 487,
      "―": 488,
      "‖": 489,
      "‘": 490,
      "’": 491,
      "“": 492,
      "”": 493,
      "•": 494,
      "‥": 495,
      "…": 496,
      "′": 497,
      "‵": 498,
      "‸": 499,
      "※": 500,
      "‼": 501,
      "‿": 502,
      "⁀": 503,
      "₃": 504,
      "₍": 505,
      "₎": 506,
      "€": 507,
      "⃛": 508,
      "℃": 509,
      "№": 510,
      "℡": 511,
      "⅞": 512,
      "ⅱ": 513,
      "←": 514,
      "↑": 515,
      "→": 516,
      "↓": 517,
      "↔": 518,
      "↕": 519,
      "∀": 520,
      "∂": 521,
      "∇": 522,
      "∑": 523,
      "−": 524,
      "√": 525,
      "∞": 526,
      "∠": 527,
      "∧": 528,
      "∩": 529,
      "∫": 530,
      "∮": 531,
      "∷": 532,
      "≈": 533,
      "≖": 534,
      "≤": 535,
      "≥": 536,
      "≦": 537,
      "≧": 538,
      "⊂": 539,
      "⊃": 540,
      "⊙": 541,
      "⊥": 542,
      "⋯": 543,
      "⌄": 544,
      "⌒": 545,
      "①": 546,
      "②": 547,
      "③": 548,
      "④": 549,
      "⑤": 550,
      "⑥": 551,
      "⑦": 552,
      "⑧": 553,
      "⑨": 554,
      "⑼": 555,
      "⒌": 556,
      "⒎": 557,
      "─": 558,
      "━": 559,
      "┌": 560,
      "┏": 561,
      "┐": 562,
      "└": 563,
      "┘": 564,
      "┬": 565,
      "┯": 566,
      "┴": 567,
      "╭": 568,
      "╮": 569,
      "╯": 570,
      "╰": 571,
      "╲": 572,
      "▁": 573,
      "▂": 574,
      "█": 575,
      "░": 576,
      "▒": 577,
      "▓": 578,
      "■": 579,
      "□": 580,
      "▲": 581,
      "△": 582,
      "▼": 583,
      "▽": 584,
      "◆": 585,
      "◇": 586,
      "◉": 587,
      "○": 588,
      "◎": 589,
      "●": 590,
      "◐": 591,
      "◑": 592,
      "◕": 593,
      "◞": 594,
      "◠": 595,
      "◡": 596,
      "◢": 597,
      "★": 598,
      "☆": 599,
      "☞": 600,
      "☻": 601,
      "♀": 602,
      "♂": 603,
      "♡": 604,
      "♤": 605,
      "♧": 606,
      "♪": 607,
      "♫": 608,
      "♬": 609,
      "♯": 610,
      "⚈": 611,
      "✖": 612,
      "✧": 613,
      "✯": 614,
      "✿": 615,
      "❃": 616,
      "❶": 617,
      "❾": 618,
      "➹": 619,
      "⟠": 620,
      "⠳": 621,
      "⢹": 622,
      "⢺": 623,
      "⢻": 624,
      "⢼": 625,
      "⣐": 626,
      "⣑": 627,
      "⣒": 628,
      "⣓": 629,
      "⩱": 630,
      "⬧": 631,
      "⺁": 632,
      "⼀": 633,
      "⼁": 634,
      "⼃": 635,
      "、": 636,
      "。": 637,
      "〃": 638,
      "々": 639,
      "〇": 640,
      "《": 641,
      "》": 642,
      "「": 643,
      "」": 644,
      "『": 645,
      "』": 646,
      "【": 647,
      "】": 648,
      "〒": 649,
      "〓": 650,
      "〔": 651,
      "〕": 652,
      "〖": 653,
      "〗": 654,
      "〜": 655,
      "ぁ": 656,
      "あ": 657,
      "ぃ": 658,
      "い": 659,
      "ぅ": 660,
      "う": 661,
      "ぇ": 662,
      "え": 663,
      "ぉ": 664,
      "お": 665,
      "か": 666,
      "が": 667,
      "き": 668,
      "く": 669,
      "ぐ": 670,
      "け": 671,
      "げ": 672,
      "こ": 673,
      "ご": 674,
      "さ": 675,
      "ざ": 676,
      "し": 677,
      "じ": 678,
      "す": 679,
      "ず": 680,
      "せ": 681,
      "ぜ": 682,
      "そ": 683,
      "ぞ": 684,
      "た": 685,
      "だ": 686,
      "ち": 687,
      "っ": 688,
      "つ": 689,
      "づ": 690,
      "て": 691,
      "で": 692,
      "と": 693,
      "ど": 694,
      "な": 695,
      "に": 696,
      "ね": 697,
      "の": 698,
      "は": 699,
      "ば": 700,
      "ぱ": 701,
      "ひ": 702,
      "べ": 703,
      "ほ": 704,
      "ぽ": 705,
      "ま": 706,
      "み": 707,
      "む": 708,
      "め": 709,
      "も": 710,
      "ゃ": 711,
      "や": 712,
      "ゆ": 713,
      "ょ": 714,
      "よ": 715,
      "ら": 716,
      "り": 717,
      "る": 718,
      "れ": 719,
      "ろ": 720,
      "わ": 721,
      "を": 722,
      "ん": 723,
      "゜": 724,
      "ゝ": 725,
      "ゞ": 726,
      "ァ": 727,
      "ア": 728,
      "ィ": 729,
      "イ": 730,
      "ゥ": 731,
      "ウ": 732,
      "ェ": 733,
      "エ": 734,
      "ォ": 735,
      "オ": 736,
      "カ": 737,
      "ガ": 738,
      "キ": 739,
      "ギ": 740,
      "ク": 741,
      "グ": 742,
      "ケ": 743,
      "ゲ": 744,
      "コ": 745,
      "ゴ": 746,
      "サ": 747,
      "シ": 748,
      "ジ": 749,
      "ス": 750,
      "ズ": 751,
      "ゼ": 752,
      "ソ": 753,
      "ゾ": 754,
      "タ": 755,
      "ダ": 756,
      "チ": 757,
      "ヂ": 758,
      "ッ": 759,
      "ツ": 760,
      "ヅ": 761,
      "テ": 762,
      "ト": 763,
      "ド": 764,
      "ヌ": 765,
      "ノ": 766,
      "バ": 767,
      "パ": 768,
      "ピ": 769,
      "ヘ": 770,
      "ホ": 771,
      "ボ": 772,
      "ミ": 773,
      "ム": 774,
      "メ": 775,
      "ョ": 776,
      "ラ": 777,
      "リ": 778,
      "ル": 779,
      "ロ": 780,
      "ワ": 781,
      "ン": 782,
      "・": 783,
      "ー": 784,
      "ヽ": 785,
      "ヾ": 786,
      "ㄅ": 787,
      "ㄇ": 788,
      "ㄉ": 789,
      "ㄋ": 790,
      "ㄎ": 791,
      "ㄐ": 792,
      "ㄓ": 793,
      "ㄚ": 794,
      "ㄛ": 795,
      "ㄜ": 796,
      "ㄟ": 797,
      "ㄢ": 798,
      "ㄥ": 799,
      "ㄧ": 800,
      "ㄨ": 801,
      "ㄱ": 802,
      "ㄴ": 803,
      "ㄷ": 804,
      "ㄹ": 805,
      "ㄺ": 806,
      "ㅂ": 807,
      "ㅅ": 808,
      "ㅇ": 809,
      "ㅊ": 810,
      "ㅋ": 811,
      "ㅌ": 812,
      "ㅍ": 813,
      "ㅎ": 814,
      "ㅑ": 815,
      "ㅓ": 816,
      "ㅕ": 817,
      "ㅗ": 818,
      "ㅛ": 819,
      "ㅜ": 820,
      "ㅝ": 821,
      "ㅠ": 822,
      "㈠": 823,
      "㈡": 824,
      "㈤": 825,
      "㈥": 826,
      "㈦": 827,
      "㈧": 828,
      "㈨": 829,
      "㎜": 830,
      "㎝": 831,
      "㎡": 832,
      "㏑": 833,
      "㏒": 834,
      "㕵": 835,
      "㥷": 836,
      "㯥": 837,
      "㯮": 838,
      "㾿": 839,
      "㿖": 840,
      "䜟": 841,
      "一": 842,
      "丁": 843,
      "七": 844,
      "万": 845,
      "丈": 846,
      "三": 847,
      "上": 848,
      "下": 849,
      "丌": 850,
      "不": 851,
      "与": 852,
      "丐": 853,
      "丑": 854,
      "专": 855,
      "且": 856,
      "丕": 857,
      "世": 858,
      "丘": 859,
      "丙": 860,
      "业": 861,
      "丛": 862,
      "东": 863,
      "丝": 864,
      "丞": 865,
      "丟": 866,
      "丢": 867,
      "两": 868,
      "严": 869,
      "丧": 870,
      "丨": 871,
      "个": 872,
      "丫": 873,
      "中": 874,
      "丰": 875,
      "串": 876,
      "临": 877,
      "丶": 878,
      "丸": 879,
      "丹": 880,
      "为": 881,
      "主": 882,
      "丼": 883,
      "丽": 884,
      "举": 885,
      "丿": 886,
      "乁": 887,
      "乂": 888,
      "乃": 889,
      "久": 890,
      "么": 891,
      "义": 892,
      "之": 893,
      "乌": 894,
      "乍": 895,
      "乎": 896,
      "乏": 897,
      "乐": 898,
      "乒": 899,
      "乓": 900,
      "乔": 901,
      "乖": 902,
      "乘": 903,
      "乙": 904,
      "乛": 905,
      "乜": 906,
      "九": 907,
      "乞": 908,
      "也": 909,
      "习": 910,
      "乡": 911,
      "书": 912,
      "买": 913,
      "乱": 914,
      "乳": 915,
      "乾": 916,
      "亁": 917,
      "亂": 918,
      "亅": 919,
      "了": 920,
      "予": 921,
      "争": 922,
      "事": 923,
      "二": 924,
      "于": 925,
      "亏": 926,
      "云": 927,
      "互": 928,
      "亓": 929,
      "五": 930,
      "井": 931,
      "亘": 932,
      "亚": 933,
      "些": 934,
      "亜": 935,
      "亞": 936,
      "亠": 937,
      "亡": 938,
      "亢": 939,
      "交": 940,
      "亥": 941,
      "亦": 942,
      "产": 943,
      "亨": 944,
      "亩": 945,
      "享": 946,
      "京": 947,
      "亭": 948,
      "亮": 949,
      "亲": 950,
      "亳": 951,
      "亵": 952,
      "人": 953,
      "亿": 954,
      "什": 955,
      "仁": 956,
      "仃": 957,
      "仄": 958,
      "仅": 959,
      "仆": 960,
      "仇": 961,
      "今": 962,
      "介": 963,
      "仍": 964,
      "从": 965,
      "仑": 966,
      "仓": 967,
      "仔": 968,
      "仕": 969,
      "他": 970,
      "仗": 971,
      "付": 972,
      "仙": 973,
      "仝": 974,
      "仟": 975,
      "代": 976,
      "令": 977,
      "以": 978,
      "仨": 979,
      "仪": 980,
      "们": 981,
      "仰": 982,
      "仲": 983,
      "件": 984,
      "价": 985,
      "任": 986,
      "仼": 987,
      "份": 988,
      "仿": 989,
      "企": 990,
      "伊": 991,
      "伍": 992,
      "伏": 993,
      "伐": 994,
      "休": 995,
      "众": 996,
      "优": 997,
      "伙": 998,
      "会": 999,
      "伞": 1000,
      "伟": 1001,
      "传": 1002,
      "伢": 1003,
      "伤": 1004,
      "伦": 1005,
      "伪": 1006,
      "伯": 1007,
      "估": 1008,
      "伱": 1009,
      "伴": 1010,
      "伶": 1011,
      "伸": 1012,
      "伺": 1013,
      "似": 1014,
      "伽": 1015,
      "但": 1016,
      "佈": 1017,
      "位": 1018,
      "低": 1019,
      "住": 1020,
      "佐": 1021,
      "佑": 1022,
      "体": 1023,
      "佔": 1024,
      "何": 1025,
      "佗": 1026,
      "余": 1027,
      "佛": 1028,
      "作": 1029,
      "佝": 1030,
      "佟": 1031,
      "你": 1032,
      "佢": 1033,
      "佣": 1034,
      "佩": 1035,
      "佬": 1036,
      "佯": 1037,
      "佰": 1038,
      "佳": 1039,
      "佶": 1040,
      "使": 1041,
      "侃": 1042,
      "侄": 1043,
      "來": 1044,
      "侈": 1045,
      "侉": 1046,
      "例": 1047,
      "侍": 1048,
      "侏": 1049,
      "侘": 1050,
      "供": 1051,
      "依": 1052,
      "侠": 1053,
      "侣": 1054,
      "侦": 1055,
      "侧": 1056,
      "侨": 1057,
      "侬": 1058,
      "侮": 1059,
      "侯": 1060,
      "侵": 1061,
      "便": 1062,
      "係": 1063,
      "促": 1064,
      "俄": 1065,
      "俊": 1066,
      "俏": 1067,
      "俐": 1068,
      "俑": 1069,
      "俗": 1070,
      "俘": 1071,
      "俚": 1072,
      "保": 1073,
      "俞": 1074,
      "信": 1075,
      "俩": 1076,
      "俪": 1077,
      "俭": 1078,
      "修": 1079,
      "俯": 1080,
      "俱": 1081,
      "俸": 1082,
      "俺": 1083,
      "俾": 1084,
      "倆": 1085,
      "個": 1086,
      "倍": 1087,
      "們": 1088,
      "倒": 1089,
      "倔": 1090,
      "倖": 1091,
      "倘": 1092,
      "候": 1093,
      "倚": 1094,
      "倜": 1095,
      "借": 1096,
      "倦": 1097,
      "倩": 1098,
      "倪": 1099,
      "倫": 1100,
      "倭": 1101,
      "债": 1102,
      "值": 1103,
      "倾": 1104,
      "偃": 1105,
      "假": 1106,
      "偉": 1107,
      "偌": 1108,
      "偏": 1109,
      "偕": 1110,
      "做": 1111,
      "停": 1112,
      "健": 1113,
      "偲": 1114,
      "側": 1115,
      "偶": 1116,
      "偷": 1117,
      "偻": 1118,
      "偿": 1119,
      "傀": 1120,
      "傅": 1121,
      "傍": 1122,
      "傑": 1123,
      "傢": 1124,
      "傥": 1125,
      "储": 1126,
      "催": 1127,
      "傲": 1128,
      "傳": 1129,
      "傷": 1130,
      "傻": 1131,
      "像": 1132,
      "僚": 1133,
      "僧": 1134,
      "僵": 1135,
      "僻": 1136,
      "儆": 1137,
      "儇": 1138,
      "儍": 1139,
      "儒": 1140,
      "儞": 1141,
      "儡": 1142,
      "優": 1143,
      "儿": 1144,
      "兀": 1145,
      "允": 1146,
      "元": 1147,
      "兄": 1148,
      "充": 1149,
      "兆": 1150,
      "兇": 1151,
      "先": 1152,
      "光": 1153,
      "兊": 1154,
      "克": 1155,
      "免": 1156,
      "兑": 1157,
      "兒": 1158,
      "兔": 1159,
      "兖": 1160,
      "党": 1161,
      "兜": 1162,
      "兢": 1163,
      "入": 1164,
      "內": 1165,
      "全": 1166,
      "兩": 1167,
      "八": 1168,
      "公": 1169,
      "六": 1170,
      "兮": 1171,
      "兰": 1172,
      "共": 1173,
      "关": 1174,
      "兴": 1175,
      "兵": 1176,
      "其": 1177,
      "具": 1178,
      "典": 1179,
      "兹": 1180,
      "养": 1181,
      "兼": 1182,
      "兽": 1183,
      "冀": 1184,
      "内": 1185,
      "冇": 1186,
      "冈": 1187,
      "冉": 1188,
      "册": 1189,
      "再": 1190,
      "冏": 1191,
      "冒": 1192,
      "冕": 1193,
      "冖": 1194,
      "冗": 1195,
      "写": 1196,
      "冚": 1197,
      "军": 1198,
      "农": 1199,
      "冠": 1200,
      "冢": 1201,
      "冤": 1202,
      "冥": 1203,
      "冬": 1204,
      "冮": 1205,
      "冯": 1206,
      "冰": 1207,
      "冲": 1208,
      "决": 1209,
      "况": 1210,
      "冶": 1211,
      "冷": 1212,
      "冻": 1213,
      "冼": 1214,
      "冽": 1215,
      "净": 1216,
      "凃": 1217,
      "凄": 1218,
      "准": 1219,
      "凇": 1220,
      "凉": 1221,
      "凋": 1222,
      "凌": 1223,
      "凍": 1224,
      "减": 1225,
      "凑": 1226,
      "凖": 1227,
      "凛": 1228,
      "凝": 1229,
      "几": 1230,
      "凡": 1231,
      "凣": 1232,
      "凤": 1233,
      "凫": 1234,
      "凭": 1235,
      "凯": 1236,
      "凰": 1237,
      "凱": 1238,
      "凳": 1239,
      "凶": 1240,
      "凸": 1241,
      "凹": 1242,
      "出": 1243,
      "击": 1244,
      "函": 1245,
      "凿": 1246,
      "刀": 1247,
      "刁": 1248,
      "刃": 1249,
      "分": 1250,
      "切": 1251,
      "刈": 1252,
      "刊": 1253,
      "刍": 1254,
      "刎": 1255,
      "刑": 1256,
      "划": 1257,
      "列": 1258,
      "刘": 1259,
      "则": 1260,
      "刚": 1261,
      "创": 1262,
      "初": 1263,
      "删": 1264,
      "判": 1265,
      "別": 1266,
      "刨": 1267,
      "利": 1268,
      "别": 1269,
      "刮": 1270,
      "到": 1271,
      "制": 1272,
      "刷": 1273,
      "券": 1274,
      "刹": 1275,
      "刺": 1276,
      "刻": 1277,
      "刽": 1278,
      "剁": 1279,
      "剂": 1280,
      "剃": 1281,
      "削": 1282,
      "剋": 1283,
      "剌": 1284,
      "前": 1285,
      "剐": 1286,
      "剑": 1287,
      "剔": 1288,
      "剖": 1289,
      "剛": 1290,
      "剜": 1291,
      "剣": 1292,
      "剥": 1293,
      "剧": 1294,
      "剩": 1295,
      "剪": 1296,
      "副": 1297,
      "割": 1298,
      "創": 1299,
      "剽": 1300,
      "剿": 1301,
      "劃": 1302,
      "劇": 1303,
      "劈": 1304,
      "劉": 1305,
      "力": 1306,
      "劝": 1307,
      "办": 1308,
      "功": 1309,
      "加": 1310,
      "务": 1311,
      "劢": 1312,
      "劣": 1313,
      "动": 1314,
      "助": 1315,
      "努": 1316,
      "劫": 1317,
      "劭": 1318,
      "励": 1319,
      "劲": 1320,
      "劳": 1321,
      "劼": 1322,
      "劾": 1323,
      "势": 1324,
      "勁": 1325,
      "勃": 1326,
      "勇": 1327,
      "勉": 1328,
      "勋": 1329,
      "勍": 1330,
      "勐": 1331,
      "勒": 1332,
      "動": 1333,
      "務": 1334,
      "勝": 1335,
      "勞": 1336,
      "募": 1337,
      "勢": 1338,
      "勤": 1339,
      "勪": 1340,
      "勵": 1341,
      "勺": 1342,
      "勾": 1343,
      "勿": 1344,
      "匀": 1345,
      "包": 1346,
      "匆": 1347,
      "匈": 1348,
      "匕": 1349,
      "化": 1350,
      "北": 1351,
      "匙": 1352,
      "匝": 1353,
      "匠": 1354,
      "匡": 1355,
      "匣": 1356,
      "匪": 1357,
      "匮": 1358,
      "匹": 1359,
      "区": 1360,
      "医": 1361,
      "匾": 1362,
      "匿": 1363,
      "十": 1364,
      "千": 1365,
      "卅": 1366,
      "升": 1367,
      "午": 1368,
      "卉": 1369,
      "半": 1370,
      "卌": 1371,
      "卍": 1372,
      "华": 1373,
      "协": 1374,
      "卑": 1375,
      "卒": 1376,
      "卓": 1377,
      "单": 1378,
      "卖": 1379,
      "南": 1380,
      "博": 1381,
      "卜": 1382,
      "卞": 1383,
      "卟": 1384,
      "占": 1385,
      "卡": 1386,
      "卢": 1387,
      "卤": 1388,
      "卦": 1389,
      "卧": 1390,
      "卩": 1391,
      "卫": 1392,
      "卮": 1393,
      "卯": 1394,
      "印": 1395,
      "危": 1396,
      "即": 1397,
      "却": 1398,
      "卵": 1399,
      "卷": 1400,
      "卸": 1401,
      "卿": 1402,
      "厂": 1403,
      "厄": 1404,
      "厅": 1405,
      "历": 1406,
      "厉": 1407,
      "压": 1408,
      "厌": 1409,
      "厒": 1410,
      "厕": 1411,
      "厘": 1412,
      "厚": 1413,
      "原": 1414,
      "厢": 1415,
      "厥": 1416,
      "厦": 1417,
      "厨": 1418,
      "厭": 1419,
      "厮": 1420,
      "厲": 1421,
      "去": 1422,
      "县": 1423,
      "叁": 1424,
      "参": 1425,
      "叄": 1426,
      "又": 1427,
      "叉": 1428,
      "及": 1429,
      "友": 1430,
      "双": 1431,
      "反": 1432,
      "叐": 1433,
      "发": 1434,
      "叔": 1435,
      "取": 1436,
      "受": 1437,
      "变": 1438,
      "叙": 1439,
      "叛": 1440,
      "叟": 1441,
      "叠": 1442,
      "口": 1443,
      "古": 1444,
      "句": 1445,
      "另": 1446,
      "叨": 1447,
      "叩": 1448,
      "只": 1449,
      "叫": 1450,
      "召": 1451,
      "叭": 1452,
      "叮": 1453,
      "可": 1454,
      "台": 1455,
      "史": 1456,
      "右": 1457,
      "叵": 1458,
      "叶": 1459,
      "号": 1460,
      "司": 1461,
      "叹": 1462,
      "叻": 1463,
      "叼": 1464,
      "叽": 1465,
      "吁": 1466,
      "吃": 1467,
      "各": 1468,
      "吆": 1469,
      "合": 1470,
      "吉": 1471,
      "吊": 1472,
      "同": 1473,
      "名": 1474,
      "后": 1475,
      "吐": 1476,
      "向": 1477,
      "吒": 1478,
      "吓": 1479,
      "吔": 1480,
      "吕": 1481,
      "吖": 1482,
      "吗": 1483,
      "君": 1484,
      "吝": 1485,
      "吞": 1486,
      "吟": 1487,
      "吠": 1488,
      "吡": 1489,
      "吥": 1490,
      "否": 1491,
      "吧": 1492,
      "吨": 1493,
      "吩": 1494,
      "含": 1495,
      "听": 1496,
      "吭": 1497,
      "吮": 1498,
      "启": 1499,
      "吱": 1500,
      "吳": 1501,
      "吴": 1502,
      "吵": 1503,
      "吶": 1504,
      "吸": 1505,
      "吹": 1506,
      "吻": 1507,
      "吼": 1508,
      "吾": 1509,
      "呀": 1510,
      "呂": 1511,
      "呃": 1512,
      "呆": 1513,
      "呈": 1514,
      "告": 1515,
      "呋": 1516,
      "呎": 1517,
      "呐": 1518,
      "呒": 1519,
      "呓": 1520,
      "呔": 1521,
      "呕": 1522,
      "呖": 1523,
      "呗": 1524,
      "员": 1525,
      "呛": 1526,
      "呜": 1527,
      "呢": 1528,
      "呤": 1529,
      "呦": 1530,
      "周": 1531,
      "呱": 1532,
      "呲": 1533,
      "味": 1534,
      "呵": 1535,
      "呶": 1536,
      "呷": 1537,
      "呸": 1538,
      "呻": 1539,
      "呼": 1540,
      "命": 1541,
      "呿": 1542,
      "咁": 1543,
      "咂": 1544,
      "咄": 1545,
      "咆": 1546,
      "咋": 1547,
      "和": 1548,
      "咎": 1549,
      "咏": 1550,
      "咐": 1551,
      "咒": 1552,
      "咔": 1553,
      "咕": 1554,
      "咖": 1555,
      "咗": 1556,
      "咘": 1557,
      "咙": 1558,
      "咚": 1559,
      "咣": 1560,
      "咦": 1561,
      "咧": 1562,
      "咨": 1563,
      "咩": 1564,
      "咪": 1565,
      "咫": 1566,
      "咬": 1567,
      "咯": 1568,
      "咱": 1569,
      "咲": 1570,
      "咳": 1571,
      "咴": 1572,
      "咸": 1573,
      "咻": 1574,
      "咽": 1575,
      "咿": 1576,
      "哀": 1577,
      "品": 1578,
      "哄": 1579,
      "哆": 1580,
      "哇": 1581,
      "哈": 1582,
      "哉": 1583,
      "响": 1584,
      "哎": 1585,
      "哏": 1586,
      "哐": 1587,
      "哑": 1588,
      "哒": 1589,
      "哓": 1590,
      "哔": 1591,
      "哗": 1592,
      "哜": 1593,
      "哝": 1594,
      "哞": 1595,
      "哟": 1596,
      "員": 1597,
      "哥": 1598,
      "哦": 1599,
      "哧": 1600,
      "哨": 1601,
      "哩": 1602,
      "哪": 1603,
      "哭": 1604,
      "哮": 1605,
      "哲": 1606,
      "哺": 1607,
      "哼": 1608,
      "哽": 1609,
      "唄": 1610,
      "唆": 1611,
      "唇": 1612,
      "唉": 1613,
      "唏": 1614,
      "唐": 1615,
      "唑": 1616,
      "唒": 1617,
      "唔": 1618,
      "唛": 1619,
      "唝": 1620,
      "唠": 1621,
      "唤": 1622,
      "唧": 1623,
      "唬": 1624,
      "售": 1625,
      "唯": 1626,
      "唰": 1627,
      "唱": 1628,
      "唷": 1629,
      "唾": 1630,
      "啃": 1631,
      "啄": 1632,
      "商": 1633,
      "啊": 1634,
      "啍": 1635,
      "問": 1636,
      "啐": 1637,
      "啕": 1638,
      "啜": 1639,
      "啡": 1640,
      "啤": 1641,
      "啥": 1642,
      "啦": 1643,
      "啧": 1644,
      "啪": 1645,
      "啫": 1646,
      "啬": 1647,
      "啰": 1648,
      "啵": 1649,
      "啷": 1650,
      "啸": 1651,
      "啼": 1652,
      "啾": 1653,
      "喀": 1654,
      "喂": 1655,
      "喃": 1656,
      "善": 1657,
      "喆": 1658,
      "喇": 1659,
      "喈": 1660,
      "喉": 1661,
      "喊": 1662,
      "喋": 1663,
      "喏": 1664,
      "喔": 1665,
      "喘": 1666,
      "喙": 1667,
      "喜": 1668,
      "喝": 1669,
      "喧": 1670,
      "喪": 1671,
      "喬": 1672,
      "單": 1673,
      "喯": 1674,
      "喱": 1675,
      "喲": 1676,
      "喳": 1677,
      "喴": 1678,
      "喵": 1679,
      "喷": 1680,
      "喻": 1681,
      "喽": 1682,
      "喾": 1683,
      "嗄": 1684,
      "嗅": 1685,
      "嗆": 1686,
      "嗎": 1687,
      "嗑": 1688,
      "嗒": 1689,
      "嗓": 1690,
      "嗔": 1691,
      "嗖": 1692,
      "嗚": 1693,
      "嗜": 1694,
      "嗝": 1695,
      "嗡": 1696,
      "嗣": 1697,
      "嗤": 1698,
      "嗦": 1699,
      "嗨": 1700,
      "嗪": 1701,
      "嗫": 1702,
      "嗬": 1703,
      "嗯": 1704,
      "嗲": 1705,
      "嗳": 1706,
      "嗶": 1707,
      "嗷": 1708,
      "嗻": 1709,
      "嗼": 1710,
      "嗽": 1711,
      "嘀": 1712,
      "嘁": 1713,
      "嘅": 1714,
      "嘈": 1715,
      "嘉": 1716,
      "嘌": 1717,
      "嘎": 1718,
      "嘖": 1719,
      "嘘": 1720,
      "嘚": 1721,
      "嘛": 1722,
      "嘞": 1723,
      "嘟": 1724,
      "嘢": 1725,
      "嘣": 1726,
      "嘤": 1727,
      "嘬": 1728,
      "嘭": 1729,
      "嘱": 1730,
      "嘲": 1731,
      "嘴": 1732,
      "嘶": 1733,
      "嘹": 1734,
      "嘻": 1735,
      "嘿": 1736,
      "噁": 1737,
      "噎": 1738,
      "噔": 1739,
      "噗": 1740,
      "噘": 1741,
      "噙": 1742,
      "噜": 1743,
      "噠": 1744,
      "噢": 1745,
      "器": 1746,
      "噩": 1747,
      "噪": 1748,
      "噫": 1749,
      "噬": 1750,
      "噱": 1751,
      "噶": 1752,
      "噹": 1753,
      "噺": 1754,
      "噻": 1755,
      "噼": 1756,
      "嚄": 1757,
      "嚅": 1758,
      "嚇": 1759,
      "嚎": 1760,
      "嚏": 1761,
      "嚒": 1762,
      "嚓": 1763,
      "嚕": 1764,
      "嚜": 1765,
      "嚟": 1766,
      "嚢": 1767,
      "嚣": 1768,
      "嚯": 1769,
      "嚶": 1770,
      "嚷": 1771,
      "嚼": 1772,
      "囉": 1773,
      "囊": 1774,
      "囍": 1775,
      "囔": 1776,
      "囖": 1777,
      "囗": 1778,
      "囚": 1779,
      "四": 1780,
      "囝": 1781,
      "回": 1782,
      "因": 1783,
      "囡": 1784,
      "团": 1785,
      "囤": 1786,
      "囧": 1787,
      "园": 1788,
      "困": 1789,
      "围": 1790,
      "固": 1791,
      "国": 1792,
      "图": 1793,
      "圀": 1794,
      "圆": 1795,
      "圈": 1796,
      "國": 1797,
      "園": 1798,
      "團": 1799,
      "圙": 1800,
      "圜": 1801,
      "土": 1802,
      "圣": 1803,
      "在": 1804,
      "圪": 1805,
      "圭": 1806,
      "地": 1807,
      "圳": 1808,
      "场": 1809,
      "圾": 1810,
      "址": 1811,
      "坂": 1812,
      "均": 1813,
      "坊": 1814,
      "坌": 1815,
      "坍": 1816,
      "坎": 1817,
      "坏": 1818,
      "坐": 1819,
      "坑": 1820,
      "块": 1821,
      "坚": 1822,
      "坛": 1823,
      "坝": 1824,
      "坞": 1825,
      "坟": 1826,
      "坠": 1827,
      "坡": 1828,
      "坤": 1829,
      "坦": 1830,
      "坨": 1831,
      "坪": 1832,
      "坯": 1833,
      "坷": 1834,
      "坻": 1835,
      "垂": 1836,
      "垃": 1837,
      "垅": 1838,
      "型": 1839,
      "垒": 1840,
      "垚": 1841,
      "垛": 1842,
      "垠": 1843,
      "垢": 1844,
      "垣": 1845,
      "垦": 1846,
      "垩": 1847,
      "垫": 1848,
      "垮": 1849,
      "埃": 1850,
      "埈": 1851,
      "埋": 1852,
      "城": 1853,
      "埔": 1854,
      "域": 1855,
      "埠": 1856,
      "埯": 1857,
      "培": 1858,
      "基": 1859,
      "堀": 1860,
      "堂": 1861,
      "堃": 1862,
      "堅": 1863,
      "堆": 1864,
      "堇": 1865,
      "堕": 1866,
      "堡": 1867,
      "堤": 1868,
      "堪": 1869,
      "堰": 1870,
      "報": 1871,
      "場": 1872,
      "堵": 1873,
      "塌": 1874,
      "塑": 1875,
      "塔": 1876,
      "塘": 1877,
      "塞": 1878,
      "填": 1879,
      "塸": 1880,
      "境": 1881,
      "墅": 1882,
      "墉": 1883,
      "墓": 1884,
      "墙": 1885,
      "增": 1886,
      "墟": 1887,
      "墨": 1888,
      "墩": 1889,
      "壁": 1890,
      "壅": 1891,
      "壑": 1892,
      "壓": 1893,
      "壕": 1894,
      "壞": 1895,
      "壤": 1896,
      "士": 1897,
      "壮": 1898,
      "声": 1899,
      "壳": 1900,
      "壶": 1901,
      "壹": 1902,
      "壽": 1903,
      "处": 1904,
      "备": 1905,
      "复": 1906,
      "夏": 1907,
      "夕": 1908,
      "外": 1909,
      "夙": 1910,
      "多": 1911,
      "夜": 1912,
      "够": 1913,
      "夠": 1914,
      "夢": 1915,
      "夥": 1916,
      "大": 1917,
      "天": 1918,
      "太": 1919,
      "夫": 1920,
      "夭": 1921,
      "央": 1922,
      "夯": 1923,
      "失": 1924,
      "头": 1925,
      "夷": 1926,
      "夸": 1927,
      "夹": 1928,
      "夺": 1929,
      "夾": 1930,
      "奀": 1931,
      "奁": 1932,
      "奂": 1933,
      "奇": 1934,
      "奈": 1935,
      "奉": 1936,
      "奋": 1937,
      "奎": 1938,
      "奏": 1939,
      "契": 1940,
      "奔": 1941,
      "奕": 1942,
      "奖": 1943,
      "套": 1944,
      "奚": 1945,
      "奛": 1946,
      "奠": 1947,
      "奡": 1948,
      "奢": 1949,
      "奥": 1950,
      "奧": 1951,
      "女": 1952,
      "奴": 1953,
      "奶": 1954,
      "奸": 1955,
      "她": 1956,
      "好": 1957,
      "妁": 1958,
      "如": 1959,
      "妃": 1960,
      "妄": 1961,
      "妆": 1962,
      "妇": 1963,
      "妈": 1964,
      "妍": 1965,
      "妒": 1966,
      "妓": 1967,
      "妖": 1968,
      "妘": 1969,
      "妙": 1970,
      "妞": 1971,
      "妤": 1972,
      "妥": 1973,
      "妨": 1974,
      "妩": 1975,
      "妪": 1976,
      "妮": 1977,
      "妯": 1978,
      "妲": 1979,
      "妳": 1980,
      "妹": 1981,
      "妺": 1982,
      "妻": 1983,
      "妾": 1984,
      "姆": 1985,
      "姊": 1986,
      "始": 1987,
      "姐": 1988,
      "姑": 1989,
      "姓": 1990,
      "委": 1991,
      "姗": 1992,
      "姘": 1993,
      "姚": 1994,
      "姜": 1995,
      "姝": 1996,
      "姣": 1997,
      "姥": 1998,
      "姦": 1999,
      "姨": 2000,
      "姬": 2001,
      "姸": 2002,
      "姻": 2003,
      "姿": 2004,
      "威": 2005,
      "娃": 2006,
      "娄": 2007,
      "娅": 2008,
      "娆": 2009,
      "娇": 2010,
      "娈": 2011,
      "娌": 2012,
      "娑": 2013,
      "娘": 2014,
      "娛": 2015,
      "娜": 2016,
      "娟": 2017,
      "娣": 2018,
      "娥": 2019,
      "娩": 2020,
      "娱": 2021,
      "娲": 2022,
      "娴": 2023,
      "娶": 2024,
      "娼": 2025,
      "婆": 2026,
      "婉": 2027,
      "婊": 2028,
      "婕": 2029,
      "婚": 2030,
      "婢": 2031,
      "婦": 2032,
      "婧": 2033,
      "婪": 2034,
      "婬": 2035,
      "婴": 2036,
      "婵": 2037,
      "婶": 2038,
      "婷": 2039,
      "婿": 2040,
      "媒": 2041,
      "媚": 2042,
      "媛": 2043,
      "媞": 2044,
      "媳": 2045,
      "媽": 2046,
      "嫁": 2047,
      "嫂": 2048,
      "嫄": 2049,
      "嫉": 2050,
      "嫌": 2051,
      "嫐": 2052,
      "嫑": 2053,
      "嫔": 2054,
      "嫖": 2055,
      "嫡": 2056,
      "嫣": 2057,
      "嫦": 2058,
      "嫩": 2059,
      "嫰": 2060,
      "嫲": 2061,
      "嬅": 2062,
      "嬉": 2063,
      "嬌": 2064,
      "嬛": 2065,
      "嬤": 2066,
      "嬲": 2067,
      "嬴": 2068,
      "嬷": 2069,
      "子": 2070,
      "孑": 2071,
      "孔": 2072,
      "孕": 2073,
      "孖": 2074,
      "字": 2075,
      "存": 2076,
      "孙": 2077,
      "孚": 2078,
      "孛": 2079,
      "孜": 2080,
      "孝": 2081,
      "孟": 2082,
      "孢": 2083,
      "季": 2084,
      "孤": 2085,
      "学": 2086,
      "孩": 2087,
      "孪": 2088,
      "孫": 2089,
      "孬": 2090,
      "孰": 2091,
      "孵": 2092,
      "學": 2093,
      "孺": 2094,
      "孽": 2095,
      "宁": 2096,
      "它": 2097,
      "宅": 2098,
      "宇": 2099,
      "守": 2100,
      "安": 2101,
      "宋": 2102,
      "完": 2103,
      "宏": 2104,
      "宗": 2105,
      "官": 2106,
      "宙": 2107,
      "定": 2108,
      "宛": 2109,
      "宜": 2110,
      "宝": 2111,
      "实": 2112,
      "宠": 2113,
      "审": 2114,
      "客": 2115,
      "宣": 2116,
      "室": 2117,
      "宥": 2118,
      "宦": 2119,
      "宪": 2120,
      "宫": 2121,
      "宬": 2122,
      "宮": 2123,
      "宰": 2124,
      "害": 2125,
      "宴": 2126,
      "宵": 2127,
      "家": 2128,
      "宸": 2129,
      "容": 2130,
      "宽": 2131,
      "宾": 2132,
      "宿": 2133,
      "寂": 2134,
      "寄": 2135,
      "寅": 2136,
      "密": 2137,
      "寇": 2138,
      "富": 2139,
      "寐": 2140,
      "寑": 2141,
      "寒": 2142,
      "寓": 2143,
      "寔": 2144,
      "寘": 2145,
      "寝": 2146,
      "寞": 2147,
      "察": 2148,
      "寡": 2149,
      "寥": 2150,
      "實": 2151,
      "寧": 2152,
      "寨": 2153,
      "寫": 2154,
      "寯": 2155,
      "寰": 2156,
      "寳": 2157,
      "寶": 2158,
      "寸": 2159,
      "对": 2160,
      "寺": 2161,
      "寻": 2162,
      "导": 2163,
      "寿": 2164,
      "封": 2165,
      "射": 2166,
      "尅": 2167,
      "将": 2168,
      "將": 2169,
      "專": 2170,
      "尉": 2171,
      "尊": 2172,
      "對": 2173,
      "小": 2174,
      "尐": 2175,
      "少": 2176,
      "尒": 2177,
      "尔": 2178,
      "尕": 2179,
      "尖": 2180,
      "尘": 2181,
      "尚": 2182,
      "尛": 2183,
      "尜": 2184,
      "尝": 2185,
      "尟": 2186,
      "尤": 2187,
      "尧": 2188,
      "尬": 2189,
      "就": 2190,
      "尴": 2191,
      "尸": 2192,
      "尹": 2193,
      "尺": 2194,
      "尻": 2195,
      "尼": 2196,
      "尽": 2197,
      "尾": 2198,
      "尿": 2199,
      "局": 2200,
      "屁": 2201,
      "层": 2202,
      "屄": 2203,
      "居": 2204,
      "屆": 2205,
      "屈": 2206,
      "屉": 2207,
      "届": 2208,
      "屋": 2209,
      "屌": 2210,
      "屎": 2211,
      "屏": 2212,
      "屑": 2213,
      "展": 2214,
      "屙": 2215,
      "属": 2216,
      "屠": 2217,
      "屡": 2218,
      "層": 2219,
      "履": 2220,
      "屬": 2221,
      "屮": 2222,
      "屯": 2223,
      "屰": 2224,
      "山": 2225,
      "屹": 2226,
      "屿": 2227,
      "岀": 2228,
      "岁": 2229,
      "岂": 2230,
      "岐": 2231,
      "岑": 2232,
      "岔": 2233,
      "岗": 2234,
      "岚": 2235,
      "岛": 2236,
      "岡": 2237,
      "岩": 2238,
      "岭": 2239,
      "岱": 2240,
      "岳": 2241,
      "岸": 2242,
      "峎": 2243,
      "峡": 2244,
      "峥": 2245,
      "峦": 2246,
      "峨": 2247,
      "峪": 2248,
      "峯": 2249,
      "峰": 2250,
      "島": 2251,
      "峻": 2252,
      "崂": 2253,
      "崇": 2254,
      "崎": 2255,
      "崔": 2256,
      "崖": 2257,
      "崗": 2258,
      "崛": 2259,
      "崧": 2260,
      "崩": 2261,
      "崴": 2262,
      "崽": 2263,
      "嵇": 2264,
      "嵌": 2265,
      "嵘": 2266,
      "嵩": 2267,
      "嶂": 2268,
      "巅": 2269,
      "巍": 2270,
      "巐": 2271,
      "巒": 2272,
      "巜": 2273,
      "川": 2274,
      "州": 2275,
      "巡": 2276,
      "巢": 2277,
      "工": 2278,
      "左": 2279,
      "巧": 2280,
      "巨": 2281,
      "巩": 2282,
      "巫": 2283,
      "差": 2284,
      "己": 2285,
      "已": 2286,
      "巳": 2287,
      "巴": 2288,
      "巷": 2289,
      "巺": 2290,
      "巽": 2291,
      "巾": 2292,
      "币": 2293,
      "市": 2294,
      "布": 2295,
      "帅": 2296,
      "帆": 2297,
      "师": 2298,
      "希": 2299,
      "帐": 2300,
      "帕": 2301,
      "帖": 2302,
      "帘": 2303,
      "帚": 2304,
      "帛": 2305,
      "帜": 2306,
      "帝": 2307,
      "帥": 2308,
      "带": 2309,
      "師": 2310,
      "席": 2311,
      "帮": 2312,
      "帰": 2313,
      "帱": 2314,
      "帶": 2315,
      "帷": 2316,
      "常": 2317,
      "帼": 2318,
      "帽": 2319,
      "幂": 2320,
      "幄": 2321,
      "幅": 2322,
      "幌": 2323,
      "幕": 2324,
      "幡": 2325,
      "幢": 2326,
      "幣": 2327,
      "幫": 2328,
      "干": 2329,
      "平": 2330,
      "年": 2331,
      "并": 2332,
      "幸": 2333,
      "幹": 2334,
      "幺": 2335,
      "幻": 2336,
      "幼": 2337,
      "幽": 2338,
      "幾": 2339,
      "广": 2340,
      "庀": 2341,
      "庄": 2342,
      "庅": 2343,
      "庆": 2344,
      "庇": 2345,
      "床": 2346,
      "序": 2347,
      "庐": 2348,
      "库": 2349,
      "应": 2350,
      "底": 2351,
      "店": 2352,
      "庙": 2353,
      "庚": 2354,
      "府": 2355,
      "庞": 2356,
      "废": 2357,
      "度": 2358,
      "座": 2359,
      "庫": 2360,
      "庭": 2361,
      "庵": 2362,
      "康": 2363,
      "庸": 2364,
      "庹": 2365,
      "庾": 2366,
      "廈": 2367,
      "廉": 2368,
      "廊": 2369,
      "廓": 2370,
      "廖": 2371,
      "廠": 2372,
      "廢": 2373,
      "廣": 2374,
      "延": 2375,
      "廷": 2376,
      "建": 2377,
      "廿": 2378,
      "开": 2379,
      "异": 2380,
      "弃": 2381,
      "弄": 2382,
      "弈": 2383,
      "弊": 2384,
      "弋": 2385,
      "弎": 2386,
      "式": 2387,
      "弓": 2388,
      "引": 2389,
      "弗": 2390,
      "弘": 2391,
      "弛": 2392,
      "弟": 2393,
      "张": 2394,
      "弢": 2395,
      "弥": 2396,
      "弦": 2397,
      "弧": 2398,
      "弩": 2399,
      "弯": 2400,
      "弱": 2401,
      "張": 2402,
      "強": 2403,
      "弹": 2404,
      "强": 2405,
      "弼": 2406,
      "归": 2407,
      "当": 2408,
      "录": 2409,
      "彗": 2410,
      "彘": 2411,
      "形": 2412,
      "彤": 2413,
      "彦": 2414,
      "彧": 2415,
      "彩": 2416,
      "彪": 2417,
      "彬": 2418,
      "彭": 2419,
      "彰": 2420,
      "影": 2421,
      "彳": 2422,
      "彷": 2423,
      "役": 2424,
      "彻": 2425,
      "彼": 2426,
      "往": 2427,
      "征": 2428,
      "徂": 2429,
      "径": 2430,
      "待": 2431,
      "很": 2432,
      "徉": 2433,
      "徊": 2434,
      "律": 2435,
      "後": 2436,
      "徐": 2437,
      "徑": 2438,
      "徒": 2439,
      "得": 2440,
      "徘": 2441,
      "從": 2442,
      "御": 2443,
      "徨": 2444,
      "復": 2445,
      "循": 2446,
      "微": 2447,
      "徳": 2448,
      "徵": 2449,
      "德": 2450,
      "徽": 2451,
      "心": 2452,
      "必": 2453,
      "忆": 2454,
      "忌": 2455,
      "忍": 2456,
      "忏": 2457,
      "忐": 2458,
      "忑": 2459,
      "忒": 2460,
      "志": 2461,
      "忘": 2462,
      "忙": 2463,
      "忠": 2464,
      "忧": 2465,
      "快": 2466,
      "忱": 2467,
      "念": 2468,
      "忻": 2469,
      "忽": 2470,
      "怀": 2471,
      "态": 2472,
      "怂": 2473,
      "怅": 2474,
      "怆": 2475,
      "怎": 2476,
      "怒": 2477,
      "怕": 2478,
      "怖": 2479,
      "怜": 2480,
      "思": 2481,
      "怠": 2482,
      "怡": 2483,
      "急": 2484,
      "性": 2485,
      "怨": 2486,
      "怪": 2487,
      "怯": 2488,
      "总": 2489,
      "怼": 2490,
      "恁": 2491,
      "恃": 2492,
      "恆": 2493,
      "恋": 2494,
      "恍": 2495,
      "恐": 2496,
      "恒": 2497,
      "恕": 2498,
      "恙": 2499,
      "恢": 2500,
      "恣": 2501,
      "恤": 2502,
      "恥": 2503,
      "恨": 2504,
      "恩": 2505,
      "恪": 2506,
      "恬": 2507,
      "恭": 2508,
      "息": 2509,
      "恰": 2510,
      "恳": 2511,
      "恵": 2512,
      "恶": 2513,
      "恺": 2514,
      "恼": 2515,
      "恿": 2516,
      "悄": 2517,
      "悉": 2518,
      "悊": 2519,
      "悌": 2520,
      "悍": 2521,
      "悔": 2522,
      "悖": 2523,
      "悚": 2524,
      "悟": 2525,
      "悠": 2526,
      "患": 2527,
      "悦": 2528,
      "您": 2529,
      "悬": 2530,
      "悭": 2531,
      "悲": 2532,
      "悴": 2533,
      "悶": 2534,
      "悸": 2535,
      "情": 2536,
      "惆": 2537,
      "惇": 2538,
      "惊": 2539,
      "惋": 2540,
      "惑": 2541,
      "惗": 2542,
      "惘": 2543,
      "惚": 2544,
      "惜": 2545,
      "惟": 2546,
      "惠": 2547,
      "惡": 2548,
      "惦": 2549,
      "惧": 2550,
      "惨": 2551,
      "惩": 2552,
      "惫": 2553,
      "惬": 2554,
      "惭": 2555,
      "惮": 2556,
      "惯": 2557,
      "惰": 2558,
      "想": 2559,
      "惶": 2560,
      "惹": 2561,
      "愁": 2562,
      "愈": 2563,
      "愉": 2564,
      "意": 2565,
      "愔": 2566,
      "愕": 2567,
      "愚": 2568,
      "愛": 2569,
      "感": 2570,
      "愣": 2571,
      "愤": 2572,
      "愧": 2573,
      "愿": 2574,
      "慈": 2575,
      "態": 2576,
      "慌": 2577,
      "慎": 2578,
      "慑": 2579,
      "慕": 2580,
      "慘": 2581,
      "慝": 2582,
      "慢": 2583,
      "慣": 2584,
      "慧": 2585,
      "慨": 2586,
      "慰": 2587,
      "慵": 2588,
      "慷": 2589,
      "憂": 2590,
      "憋": 2591,
      "憎": 2592,
      "憐": 2593,
      "憑": 2594,
      "憔": 2595,
      "憤": 2596,
      "憨": 2597,
      "憾": 2598,
      "懁": 2599,
      "懂": 2600,
      "懈": 2601,
      "應": 2602,
      "懊": 2603,
      "懋": 2604,
      "懒": 2605,
      "懦": 2606,
      "懵": 2607,
      "懶": 2608,
      "懷": 2609,
      "懿": 2610,
      "戀": 2611,
      "戆": 2612,
      "戈": 2613,
      "戊": 2614,
      "戌": 2615,
      "戎": 2616,
      "戏": 2617,
      "成": 2618,
      "我": 2619,
      "戒": 2620,
      "戕": 2621,
      "或": 2622,
      "战": 2623,
      "戚": 2624,
      "戟": 2625,
      "截": 2626,
      "戮": 2627,
      "戰": 2628,
      "戲": 2629,
      "戳": 2630,
      "戴": 2631,
      "户": 2632,
      "房": 2633,
      "所": 2634,
      "扁": 2635,
      "扇": 2636,
      "扈": 2637,
      "扉": 2638,
      "手": 2639,
      "才": 2640,
      "扎": 2641,
      "扐": 2642,
      "扑": 2643,
      "扒": 2644,
      "打": 2645,
      "扔": 2646,
      "托": 2647,
      "扛": 2648,
      "扣": 2649,
      "执": 2650,
      "扩": 2651,
      "扫": 2652,
      "扬": 2653,
      "扭": 2654,
      "扮": 2655,
      "扯": 2656,
      "扰": 2657,
      "扳": 2658,
      "扶": 2659,
      "批": 2660,
      "找": 2661,
      "承": 2662,
      "技": 2663,
      "抄": 2664,
      "抉": 2665,
      "把": 2666,
      "抑": 2667,
      "抒": 2668,
      "抓": 2669,
      "投": 2670,
      "抖": 2671,
      "抗": 2672,
      "折": 2673,
      "抚": 2674,
      "抛": 2675,
      "抜": 2676,
      "抠": 2677,
      "抡": 2678,
      "抢": 2679,
      "护": 2680,
      "报": 2681,
      "披": 2682,
      "抬": 2683,
      "抱": 2684,
      "抵": 2685,
      "抹": 2686,
      "押": 2687,
      "抽": 2688,
      "拂": 2689,
      "拄": 2690,
      "担": 2691,
      "拆": 2692,
      "拇": 2693,
      "拈": 2694,
      "拉": 2695,
      "拋": 2696,
      "拌": 2697,
      "拍": 2698,
      "拎": 2699,
      "拐": 2700,
      "拒": 2701,
      "拓": 2702,
      "拔": 2703,
      "拖": 2704,
      "拗": 2705,
      "拙": 2706,
      "招": 2707,
      "拜": 2708,
      "拟": 2709,
      "拢": 2710,
      "拣": 2711,
      "拥": 2712,
      "拦": 2713,
      "拧": 2714,
      "拨": 2715,
      "择": 2716,
      "括": 2717,
      "拭": 2718,
      "拯": 2719,
      "拱": 2720,
      "拳": 2721,
      "拴": 2722,
      "拷": 2723,
      "拼": 2724,
      "拽": 2725,
      "拾": 2726,
      "拿": 2727,
      "持": 2728,
      "挂": 2729,
      "指": 2730,
      "按": 2731,
      "挊": 2732,
      "挑": 2733,
      "挖": 2734,
      "挚": 2735,
      "挝": 2736,
      "挞": 2737,
      "挟": 2738,
      "挠": 2739,
      "挡": 2740,
      "挣": 2741,
      "挤": 2742,
      "挥": 2743,
      "挨": 2744,
      "挪": 2745,
      "挫": 2746,
      "振": 2747,
      "挺": 2748,
      "挽": 2749,
      "捂": 2750,
      "捅": 2751,
      "捆": 2752,
      "捉": 2753,
      "捋": 2754,
      "捌": 2755,
      "捍": 2756,
      "捏": 2757,
      "捐": 2758,
      "捕": 2759,
      "捘": 2760,
      "捞": 2761,
      "损": 2762,
      "捡": 2763,
      "换": 2764,
      "捣": 2765,
      "捧": 2766,
      "据": 2767,
      "捶": 2768,
      "捷": 2769,
      "捺": 2770,
      "捻": 2771,
      "掀": 2772,
      "掂": 2773,
      "掇": 2774,
      "授": 2775,
      "掉": 2776,
      "掌": 2777,
      "掏": 2778,
      "掐": 2779,
      "排": 2780,
      "掖": 2781,
      "掘": 2782,
      "掙": 2783,
      "掛": 2784,
      "掜": 2785,
      "掠": 2786,
      "探": 2787,
      "接": 2788,
      "控": 2789,
      "推": 2790,
      "掩": 2791,
      "措": 2792,
      "掬": 2793,
      "掰": 2794,
      "掱": 2795,
      "掳": 2796,
      "掴": 2797,
      "掷": 2798,
      "掸": 2799,
      "掺": 2800,
      "揀": 2801,
      "揉": 2802,
      "揍": 2803,
      "揎": 2804,
      "描": 2805,
      "提": 2806,
      "插": 2807,
      "揚": 2808,
      "換": 2809,
      "握": 2810,
      "揣": 2811,
      "揪": 2812,
      "揭": 2813,
      "援": 2814,
      "揽": 2815,
      "揾": 2816,
      "搀": 2817,
      "搁": 2818,
      "搂": 2819,
      "搅": 2820,
      "搏": 2821,
      "搐": 2822,
      "搓": 2823,
      "搔": 2824,
      "搜": 2825,
      "搞": 2826,
      "搥": 2827,
      "搧": 2828,
      "搪": 2829,
      "搬": 2830,
      "搭": 2831,
      "搴": 2832,
      "搶": 2833,
      "携": 2834,
      "搽": 2835,
      "摁": 2836,
      "摄": 2837,
      "摆": 2838,
      "摇": 2839,
      "摊": 2840,
      "摔": 2841,
      "摘": 2842,
      "摞": 2843,
      "摟": 2844,
      "摧": 2845,
      "摩": 2846,
      "摸": 2847,
      "摹": 2848,
      "摺": 2849,
      "撂": 2850,
      "撅": 2851,
      "撇": 2852,
      "撐": 2853,
      "撑": 2854,
      "撒": 2855,
      "撓": 2856,
      "撕": 2857,
      "撘": 2858,
      "撚": 2859,
      "撞": 2860,
      "撤": 2861,
      "撩": 2862,
      "撬": 2863,
      "播": 2864,
      "撮": 2865,
      "撰": 2866,
      "撲": 2867,
      "撵": 2868,
      "撸": 2869,
      "撼": 2870,
      "擀": 2871,
      "擁": 2872,
      "擅": 2873,
      "擋": 2874,
      "操": 2875,
      "擎": 2876,
      "擒": 2877,
      "擔": 2878,
      "據": 2879,
      "擞": 2880,
      "擤": 2881,
      "擦": 2882,
      "擼": 2883,
      "擾": 2884,
      "攀": 2885,
      "攒": 2886,
      "支": 2887,
      "收": 2888,
      "攸": 2889,
      "改": 2890,
      "攻": 2891,
      "放": 2892,
      "政": 2893,
      "故": 2894,
      "效": 2895,
      "敌": 2896,
      "敏": 2897,
      "救": 2898,
      "敖": 2899,
      "敗": 2900,
      "教": 2901,
      "敛": 2902,
      "敝": 2903,
      "敞": 2904,
      "敢": 2905,
      "散": 2906,
      "敦": 2907,
      "敬": 2908,
      "敭": 2909,
      "数": 2910,
      "敲": 2911,
      "整": 2912,
      "敵": 2913,
      "敷": 2914,
      "數": 2915,
      "文": 2916,
      "斋": 2917,
      "斌": 2918,
      "斐": 2919,
      "斑": 2920,
      "斗": 2921,
      "料": 2922,
      "斜": 2923,
      "斟": 2924,
      "斤": 2925,
      "斥": 2926,
      "斧": 2927,
      "斩": 2928,
      "断": 2929,
      "斯": 2930,
      "新": 2931,
      "斷": 2932,
      "方": 2933,
      "於": 2934,
      "施": 2935,
      "旁": 2936,
      "旅": 2937,
      "旋": 2938,
      "旎": 2939,
      "族": 2940,
      "旖": 2941,
      "旗": 2942,
      "无": 2943,
      "既": 2944,
      "日": 2945,
      "旦": 2946,
      "旧": 2947,
      "旨": 2948,
      "早": 2949,
      "旬": 2950,
      "旭": 2951,
      "旮": 2952,
      "旯": 2953,
      "旱": 2954,
      "旳": 2955,
      "时": 2956,
      "旷": 2957,
      "旸": 2958,
      "旺": 2959,
      "旻": 2960,
      "昀": 2961,
      "昂": 2962,
      "昆": 2963,
      "昊": 2964,
      "昌": 2965,
      "明": 2966,
      "昏": 2967,
      "易": 2968,
      "昔": 2969,
      "昕": 2970,
      "昙": 2971,
      "昝": 2972,
      "星": 2973,
      "映": 2974,
      "春": 2975,
      "昧": 2976,
      "昨": 2977,
      "昭": 2978,
      "是": 2979,
      "昰": 2980,
      "昱": 2981,
      "昳": 2982,
      "昵": 2983,
      "昶": 2984,
      "昼": 2985,
      "显": 2986,
      "晁": 2987,
      "時": 2988,
      "晃": 2989,
      "晋": 2990,
      "晌": 2991,
      "晏": 2992,
      "晒": 2993,
      "晓": 2994,
      "晔": 2995,
      "晕": 2996,
      "晖": 2997,
      "晗": 2998,
      "晚": 2999,
      "晞": 3000,
      "晟": 3001,
      "晦": 3002,
      "晨": 3003,
      "晩": 3004,
      "晫": 3005,
      "普": 3006,
      "景": 3007,
      "晰": 3008,
      "晴": 3009,
      "晶": 3010,
      "晸": 3011,
      "智": 3012,
      "晾": 3013,
      "暁": 3014,
      "暂": 3015,
      "暄": 3016,
      "暇": 3017,
      "暈": 3018,
      "暑": 3019,
      "暖": 3020,
      "暗": 3021,
      "暧": 3022,
      "暨": 3023,
      "暮": 3024,
      "暴": 3025,
      "暹": 3026,
      "曈": 3027,
      "曉": 3028,
      "曌": 3029,
      "曙": 3030,
      "曚": 3031,
      "曝": 3032,
      "曦": 3033,
      "曰": 3034,
      "曲": 3035,
      "更": 3036,
      "書": 3037,
      "曹": 3038,
      "曺": 3039,
      "曼": 3040,
      "曾": 3041,
      "替": 3042,
      "最": 3043,
      "會": 3044,
      "月": 3045,
      "有": 3046,
      "朋": 3047,
      "服": 3048,
      "朐": 3049,
      "朔": 3050,
      "朕": 3051,
      "朗": 3052,
      "望": 3053,
      "朝": 3054,
      "期": 3055,
      "朦": 3056,
      "木": 3057,
      "未": 3058,
      "末": 3059,
      "本": 3060,
      "术": 3061,
      "朱": 3062,
      "朴": 3063,
      "朵": 3064,
      "机": 3065,
      "朽": 3066,
      "杀": 3067,
      "杂": 3068,
      "权": 3069,
      "杆": 3070,
      "杉": 3071,
      "李": 3072,
      "杏": 3073,
      "材": 3074,
      "村": 3075,
      "杖": 3076,
      "杜": 3077,
      "杞": 3078,
      "束": 3079,
      "杠": 3080,
      "条": 3081,
      "来": 3082,
      "杨": 3083,
      "杭": 3084,
      "杯": 3085,
      "杰": 3086,
      "東": 3087,
      "杲": 3088,
      "杵": 3089,
      "杷": 3090,
      "杼": 3091,
      "松": 3092,
      "板": 3093,
      "极": 3094,
      "构": 3095,
      "枇": 3096,
      "枉": 3097,
      "析": 3098,
      "枕": 3099,
      "林": 3100,
      "枚": 3101,
      "果": 3102,
      "枝": 3103,
      "枞": 3104,
      "枢": 3105,
      "枣": 3106,
      "枥": 3107,
      "枪": 3108,
      "枫": 3109,
      "枬": 3110,
      "枭": 3111,
      "枯": 3112,
      "枰": 3113,
      "架": 3114,
      "枷": 3115,
      "柄": 3116,
      "柏": 3117,
      "某": 3118,
      "柒": 3119,
      "染": 3120,
      "柔": 3121,
      "柚": 3122,
      "柜": 3123,
      "柠": 3124,
      "柤": 3125,
      "查": 3126,
      "柬": 3127,
      "柯": 3128,
      "柱": 3129,
      "柳": 3130,
      "柴": 3131,
      "柿": 3132,
      "栀": 3133,
      "栆": 3134,
      "标": 3135,
      "栈": 3136,
      "栋": 3137,
      "栎": 3138,
      "栏": 3139,
      "树": 3140,
      "栓": 3141,
      "栖": 3142,
      "栗": 3143,
      "校": 3144,
      "栩": 3145,
      "株": 3146,
      "样": 3147,
      "核": 3148,
      "根": 3149,
      "格": 3150,
      "栽": 3151,
      "栾": 3152,
      "桀": 3153,
      "桁": 3154,
      "桂": 3155,
      "桃": 3156,
      "框": 3157,
      "案": 3158,
      "桌": 3159,
      "桐": 3160,
      "桑": 3161,
      "桓": 3162,
      "桔": 3163,
      "桢": 3164,
      "档": 3165,
      "桥": 3166,
      "桦": 3167,
      "桧": 3168,
      "桨": 3169,
      "桩": 3170,
      "桶": 3171,
      "桸": 3172,
      "梁": 3173,
      "梅": 3174,
      "梓": 3175,
      "梗": 3176,
      "條": 3177,
      "梢": 3178,
      "梦": 3179,
      "梧": 3180,
      "梨": 3181,
      "梭": 3182,
      "梯": 3183,
      "械": 3184,
      "梳": 3185,
      "梵": 3186,
      "检": 3187,
      "棄": 3188,
      "棉": 3189,
      "棋": 3190,
      "棍": 3191,
      "棒": 3192,
      "棕": 3193,
      "棘": 3194,
      "棚": 3195,
      "棠": 3196,
      "棣": 3197,
      "棨": 3198,
      "森": 3199,
      "棱": 3200,
      "棵": 3201,
      "棹": 3202,
      "棺": 3203,
      "椅": 3204,
      "植": 3205,
      "椎": 3206,
      "椒": 3207,
      "椭": 3208,
      "椰": 3209,
      "楂": 3210,
      "楊": 3211,
      "楔": 3212,
      "楚": 3213,
      "楞": 3214,
      "楠": 3215,
      "楦": 3216,
      "業": 3217,
      "楮": 3218,
      "極": 3219,
      "楷": 3220,
      "楸": 3221,
      "楹": 3222,
      "楼": 3223,
      "概": 3224,
      "榄": 3225,
      "榆": 3226,
      "榔": 3227,
      "榕": 3228,
      "榛": 3229,
      "榜": 3230,
      "榧": 3231,
      "榨": 3232,
      "榭": 3233,
      "榴": 3234,
      "榻": 3235,
      "槃": 3236,
      "槊": 3237,
      "槌": 3238,
      "槐": 3239,
      "槑": 3240,
      "様": 3241,
      "槛": 3242,
      "槟": 3243,
      "槳": 3244,
      "槽": 3245,
      "槿": 3246,
      "樂": 3247,
      "樊": 3248,
      "樑": 3249,
      "樓": 3250,
      "標": 3251,
      "樟": 3252,
      "模": 3253,
      "樣": 3254,
      "権": 3255,
      "横": 3256,
      "樯": 3257,
      "樱": 3258,
      "樵": 3259,
      "樽": 3260,
      "樾": 3261,
      "橄": 3262,
      "橘": 3263,
      "橙": 3264,
      "機": 3265,
      "橡": 3266,
      "橤": 3267,
      "橥": 3268,
      "橩": 3269,
      "橹": 3270,
      "檀": 3271,
      "檎": 3272,
      "檐": 3273,
      "檢": 3274,
      "檫": 3275,
      "檬": 3276,
      "檽": 3277,
      "權": 3278,
      "欠": 3279,
      "次": 3280,
      "欢": 3281,
      "欣": 3282,
      "欧": 3283,
      "欲": 3284,
      "欸": 3285,
      "欺": 3286,
      "款": 3287,
      "歆": 3288,
      "歇": 3289,
      "歉": 3290,
      "歌": 3291,
      "歐": 3292,
      "歑": 3293,
      "歙": 3294,
      "歡": 3295,
      "止": 3296,
      "正": 3297,
      "此": 3298,
      "步": 3299,
      "武": 3300,
      "歧": 3301,
      "歨": 3302,
      "歩": 3303,
      "歪": 3304,
      "歲": 3305,
      "歳": 3306,
      "歹": 3307,
      "死": 3308,
      "歼": 3309,
      "殂": 3310,
      "殃": 3311,
      "殇": 3312,
      "殉": 3313,
      "殊": 3314,
      "残": 3315,
      "殖": 3316,
      "殘": 3317,
      "殴": 3318,
      "段": 3319,
      "殷": 3320,
      "殺": 3321,
      "殼": 3322,
      "殿": 3323,
      "毀": 3324,
      "毁": 3325,
      "毅": 3326,
      "毋": 3327,
      "母": 3328,
      "每": 3329,
      "毒": 3330,
      "毓": 3331,
      "比": 3332,
      "毕": 3333,
      "毙": 3334,
      "毛": 3335,
      "毡": 3336,
      "毫": 3337,
      "毯": 3338,
      "毽": 3339,
      "氏": 3340,
      "民": 3341,
      "氓": 3342,
      "气": 3343,
      "氕": 3344,
      "氖": 3345,
      "気": 3346,
      "氘": 3347,
      "氚": 3348,
      "氛": 3349,
      "氟": 3350,
      "氢": 3351,
      "氣": 3352,
      "氦": 3353,
      "氧": 3354,
      "氨": 3355,
      "氪": 3356,
      "氮": 3357,
      "氯": 3358,
      "氰": 3359,
      "水": 3360,
      "氵": 3361,
      "永": 3362,
      "氿": 3363,
      "汀": 3364,
      "汁": 3365,
      "求": 3366,
      "汆": 3367,
      "汇": 3368,
      "汉": 3369,
      "汐": 3370,
      "汕": 3371,
      "汗": 3372,
      "汛": 3373,
      "汝": 3374,
      "汞": 3375,
      "江": 3376,
      "池": 3377,
      "污": 3378,
      "汤": 3379,
      "汥": 3380,
      "汪": 3381,
      "汰": 3382,
      "汱": 3383,
      "汲": 3384,
      "汶": 3385,
      "汹": 3386,
      "決": 3387,
      "汽": 3388,
      "汾": 3389,
      "沁": 3390,
      "沂": 3391,
      "沃": 3392,
      "沅": 3393,
      "沆": 3394,
      "沈": 3395,
      "沉": 3396,
      "沌": 3397,
      "沏": 3398,
      "沐": 3399,
      "沒": 3400,
      "沙": 3401,
      "沛": 3402,
      "沟": 3403,
      "没": 3404,
      "沢": 3405,
      "沣": 3406,
      "沤": 3407,
      "沥": 3408,
      "沦": 3409,
      "沧": 3410,
      "沩": 3411,
      "沪": 3412,
      "沫": 3413,
      "沭": 3414,
      "沮": 3415,
      "沱": 3416,
      "河": 3417,
      "沸": 3418,
      "油": 3419,
      "治": 3420,
      "沼": 3421,
      "沽": 3422,
      "沾": 3423,
      "沿": 3424,
      "況": 3425,
      "泄": 3426,
      "泇": 3427,
      "泉": 3428,
      "泊": 3429,
      "泌": 3430,
      "泓": 3431,
      "法": 3432,
      "泗": 3433,
      "泛": 3434,
      "泠": 3435,
      "泡": 3436,
      "波": 3437,
      "泣": 3438,
      "泥": 3439,
      "注": 3440,
      "泪": 3441,
      "泫": 3442,
      "泯": 3443,
      "泰": 3444,
      "泱": 3445,
      "泳": 3446,
      "泵": 3447,
      "泷": 3448,
      "泸": 3449,
      "泺": 3450,
      "泻": 3451,
      "泼": 3452,
      "泽": 3453,
      "泾": 3454,
      "洁": 3455,
      "洋": 3456,
      "洒": 3457,
      "洗": 3458,
      "洙": 3459,
      "洛": 3460,
      "洞": 3461,
      "津": 3462,
      "洪": 3463,
      "洮": 3464,
      "洱": 3465,
      "洲": 3466,
      "洵": 3467,
      "洺": 3468,
      "活": 3469,
      "洼": 3470,
      "洽": 3471,
      "派": 3472,
      "流": 3473,
      "浅": 3474,
      "浆": 3475,
      "浇": 3476,
      "浊": 3477,
      "测": 3478,
      "浍": 3479,
      "济": 3480,
      "浏": 3481,
      "浑": 3482,
      "浒": 3483,
      "浓": 3484,
      "浙": 3485,
      "浜": 3486,
      "浣": 3487,
      "浥": 3488,
      "浦": 3489,
      "浩": 3490,
      "浪": 3491,
      "浮": 3492,
      "浴": 3493,
      "海": 3494,
      "浸": 3495,
      "涂": 3496,
      "涅": 3497,
      "消": 3498,
      "涉": 3499,
      "涌": 3500,
      "涎": 3501,
      "涕": 3502,
      "涛": 3503,
      "涝": 3504,
      "涞": 3505,
      "涟": 3506,
      "涡": 3507,
      "涣": 3508,
      "涤": 3509,
      "润": 3510,
      "涨": 3511,
      "涩": 3512,
      "涮": 3513,
      "涯": 3514,
      "液": 3515,
      "涵": 3516,
      "涸": 3517,
      "涼": 3518,
      "涿": 3519,
      "淀": 3520,
      "淄": 3521,
      "淅": 3522,
      "淆": 3523,
      "淇": 3524,
      "淋": 3525,
      "淌": 3526,
      "淑": 3527,
      "淒": 3528,
      "淘": 3529,
      "淚": 3530,
      "淝": 3531,
      "淞": 3532,
      "淡": 3533,
      "淤": 3534,
      "淦": 3535,
      "淫": 3536,
      "淬": 3537,
      "淮": 3538,
      "深": 3539,
      "淳": 3540,
      "淵": 3541,
      "淶": 3542,
      "混": 3543,
      "淸": 3544,
      "淹": 3545,
      "淺": 3546,
      "添": 3547,
      "淼": 3548,
      "清": 3549,
      "渊": 3550,
      "渍": 3551,
      "渎": 3552,
      "渐": 3553,
      "渔": 3554,
      "渗": 3555,
      "渘": 3556,
      "渚": 3557,
      "渝": 3558,
      "渠": 3559,
      "渡": 3560,
      "渣": 3561,
      "渤": 3562,
      "温": 3563,
      "測": 3564,
      "渭": 3565,
      "港": 3566,
      "渲": 3567,
      "渴": 3568,
      "游": 3569,
      "渺": 3570,
      "渾": 3571,
      "湃": 3572,
      "湄": 3573,
      "湉": 3574,
      "湊": 3575,
      "湓": 3576,
      "湖": 3577,
      "湘": 3578,
      "湛": 3579,
      "湮": 3580,
      "湲": 3581,
      "湾": 3582,
      "湿": 3583,
      "溃": 3584,
      "溅": 3585,
      "源": 3586,
      "準": 3587,
      "溜": 3588,
      "溝": 3589,
      "溟": 3590,
      "溢": 3591,
      "溦": 3592,
      "溧": 3593,
      "溪": 3594,
      "溫": 3595,
      "溯": 3596,
      "溴": 3597,
      "溶": 3598,
      "溺": 3599,
      "滁": 3600,
      "滋": 3601,
      "滎": 3602,
      "滑": 3603,
      "滓": 3604,
      "滔": 3605,
      "滕": 3606,
      "滘": 3607,
      "滚": 3608,
      "滞": 3609,
      "满": 3610,
      "滢": 3611,
      "滤": 3612,
      "滥": 3613,
      "滨": 3614,
      "滩": 3615,
      "滴": 3616,
      "滷": 3617,
      "滾": 3618,
      "滿": 3619,
      "漂": 3620,
      "漆": 3621,
      "漏": 3622,
      "漓": 3623,
      "演": 3624,
      "漠": 3625,
      "漢": 3626,
      "漩": 3627,
      "漪": 3628,
      "漫": 3629,
      "漱": 3630,
      "漲": 3631,
      "漳": 3632,
      "漴": 3633,
      "漾": 3634,
      "潇": 3635,
      "潋": 3636,
      "潍": 3637,
      "潑": 3638,
      "潔": 3639,
      "潘": 3640,
      "潜": 3641,
      "潞": 3642,
      "潢": 3643,
      "潦": 3644,
      "潩": 3645,
      "潭": 3646,
      "潮": 3647,
      "潲": 3648,
      "潴": 3649,
      "潵": 3650,
      "潸": 3651,
      "潺": 3652,
      "潼": 3653,
      "澄": 3654,
      "澈": 3655,
      "澍": 3656,
      "澎": 3657,
      "澔": 3658,
      "澜": 3659,
      "澡": 3660,
      "澤": 3661,
      "澧": 3662,
      "澪": 3663,
      "澳": 3664,
      "激": 3665,
      "濑": 3666,
      "濒": 3667,
      "濛": 3668,
      "濟": 3669,
      "濠": 3670,
      "濡": 3671,
      "濮": 3672,
      "濯": 3673,
      "瀑": 3674,
      "瀚": 3675,
      "瀛": 3676,
      "瀬": 3677,
      "灌": 3678,
      "灏": 3679,
      "灞": 3680,
      "灣": 3681,
      "灪": 3682,
      "火": 3683,
      "灬": 3684,
      "灭": 3685,
      "灯": 3686,
      "灰": 3687,
      "灵": 3688,
      "灶": 3689,
      "灸": 3690,
      "灺": 3691,
      "灼": 3692,
      "灾": 3693,
      "灿": 3694,
      "炀": 3695,
      "炅": 3696,
      "炉": 3697,
      "炊": 3698,
      "炎": 3699,
      "炒": 3700,
      "炔": 3701,
      "炕": 3702,
      "炖": 3703,
      "炙": 3704,
      "炜": 3705,
      "炝": 3706,
      "炣": 3707,
      "炫": 3708,
      "炬": 3709,
      "炭": 3710,
      "炮": 3711,
      "炯": 3712,
      "炱": 3713,
      "炳": 3714,
      "炸": 3715,
      "点": 3716,
      "為": 3717,
      "炼": 3718,
      "炽": 3719,
      "烀": 3720,
      "烁": 3721,
      "烂": 3722,
      "烈": 3723,
      "烊": 3724,
      "烏": 3725,
      "烘": 3726,
      "烙": 3727,
      "烛": 3728,
      "烜": 3729,
      "烟": 3730,
      "烤": 3731,
      "烦": 3732,
      "烧": 3733,
      "烨": 3734,
      "烩": 3735,
      "烫": 3736,
      "烬": 3737,
      "热": 3738,
      "烯": 3739,
      "烷": 3740,
      "烹": 3741,
      "烽": 3742,
      "焉": 3743,
      "焊": 3744,
      "焓": 3745,
      "焕": 3746,
      "焖": 3747,
      "焗": 3748,
      "焚": 3749,
      "無": 3750,
      "焦": 3751,
      "焰": 3752,
      "焱": 3753,
      "然": 3754,
      "煊": 3755,
      "煌": 3756,
      "煎": 3757,
      "煜": 3758,
      "煞": 3759,
      "煤": 3760,
      "煦": 3761,
      "照": 3762,
      "煨": 3763,
      "煩": 3764,
      "煬": 3765,
      "煮": 3766,
      "煱": 3767,
      "煲": 3768,
      "煸": 3769,
      "煺": 3770,
      "煽": 3771,
      "熄": 3772,
      "熊": 3773,
      "熏": 3774,
      "熓": 3775,
      "熔": 3776,
      "熙": 3777,
      "熟": 3778,
      "熠": 3779,
      "熬": 3780,
      "熱": 3781,
      "熵": 3782,
      "熹": 3783,
      "燃": 3784,
      "燉": 3785,
      "燊": 3786,
      "燎": 3787,
      "燒": 3788,
      "燕": 3789,
      "燙": 3790,
      "燚": 3791,
      "營": 3792,
      "燥": 3793,
      "燦": 3794,
      "燮": 3795,
      "燻": 3796,
      "爆": 3797,
      "爛": 3798,
      "爪": 3799,
      "爬": 3800,
      "爭": 3801,
      "爰": 3802,
      "爱": 3803,
      "爲": 3804,
      "爵": 3805,
      "父": 3806,
      "爷": 3807,
      "爸": 3808,
      "爹": 3809,
      "爺": 3810,
      "爻": 3811,
      "爽": 3812,
      "爾": 3813,
      "片": 3814,
      "版": 3815,
      "牌": 3816,
      "牙": 3817,
      "牛": 3818,
      "牟": 3819,
      "牡": 3820,
      "牢": 3821,
      "牧": 3822,
      "物": 3823,
      "牪": 3824,
      "牲": 3825,
      "牵": 3826,
      "特": 3827,
      "牺": 3828,
      "犀": 3829,
      "犁": 3830,
      "犄": 3831,
      "犊": 3832,
      "犒": 3833,
      "犟": 3834,
      "犢": 3835,
      "犬": 3836,
      "犯": 3837,
      "犴": 3838,
      "状": 3839,
      "犷": 3840,
      "犸": 3841,
      "犹": 3842,
      "犽": 3843,
      "狀": 3844,
      "狂": 3845,
      "狄": 3846,
      "狈": 3847,
      "狍": 3848,
      "狐": 3849,
      "狒": 3850,
      "狗": 3851,
      "狙": 3852,
      "狞": 3853,
      "狠": 3854,
      "狡": 3855,
      "独": 3856,
      "狭": 3857,
      "狮": 3858,
      "狰": 3859,
      "狱": 3860,
      "狲": 3861,
      "狴": 3862,
      "狸": 3863,
      "狼": 3864,
      "猎": 3865,
      "猕": 3866,
      "猖": 3867,
      "猗": 3868,
      "猛": 3869,
      "猜": 3870,
      "猝": 3871,
      "猡": 3872,
      "猢": 3873,
      "猥": 3874,
      "猩": 3875,
      "猪": 3876,
      "猫": 3877,
      "猬": 3878,
      "献": 3879,
      "猱": 3880,
      "猴": 3881,
      "猹": 3882,
      "猾": 3883,
      "猿": 3884,
      "獅": 3885,
      "獎": 3886,
      "獒": 3887,
      "獗": 3888,
      "獨": 3889,
      "獭": 3890,
      "獲": 3891,
      "獸": 3892,
      "玄": 3893,
      "率": 3894,
      "玉": 3895,
      "王": 3896,
      "玐": 3897,
      "玑": 3898,
      "玖": 3899,
      "玘": 3900,
      "玚": 3901,
      "玛": 3902,
      "玟": 3903,
      "玥": 3904,
      "玩": 3905,
      "玫": 3906,
      "玮": 3907,
      "环": 3908,
      "现": 3909,
      "玲": 3910,
      "玳": 3911,
      "玷": 3912,
      "玹": 3913,
      "玺": 3914,
      "玻": 3915,
      "珀": 3916,
      "珂": 3917,
      "珅": 3918,
      "珈": 3919,
      "珉": 3920,
      "珊": 3921,
      "珍": 3922,
      "珏": 3923,
      "珑": 3924,
      "珒": 3925,
      "珞": 3926,
      "珠": 3927,
      "珩": 3928,
      "班": 3929,
      "珮": 3930,
      "珰": 3931,
      "珲": 3932,
      "珺": 3933,
      "珽": 3934,
      "現": 3935,
      "球": 3936,
      "琅": 3937,
      "理": 3938,
      "琇": 3939,
      "琉": 3940,
      "琊": 3941,
      "琍": 3942,
      "琐": 3943,
      "琛": 3944,
      "琢": 3945,
      "琥": 3946,
      "琦": 3947,
      "琨": 3948,
      "琪": 3949,
      "琬": 3950,
      "琰": 3951,
      "琳": 3952,
      "琴": 3953,
      "琵": 3954,
      "琶": 3955,
      "琼": 3956,
      "瑀": 3957,
      "瑄": 3958,
      "瑋": 3959,
      "瑕": 3960,
      "瑙": 3961,
      "瑚": 3962,
      "瑛": 3963,
      "瑜": 3964,
      "瑞": 3965,
      "瑟": 3966,
      "瑢": 3967,
      "瑣": 3968,
      "瑪": 3969,
      "瑰": 3970,
      "瑱": 3971,
      "瑵": 3972,
      "瑶": 3973,
      "瑷": 3974,
      "瑾": 3975,
      "璂": 3976,
      "璃": 3977,
      "璇": 3978,
      "璋": 3979,
      "璐": 3980,
      "璘": 3981,
      "璜": 3982,
      "璞": 3983,
      "璟": 3984,
      "璠": 3985,
      "璧": 3986,
      "璨": 3987,
      "璪": 3988,
      "環": 3989,
      "瓁": 3990,
      "瓊": 3991,
      "瓒": 3992,
      "瓛": 3993,
      "瓜": 3994,
      "瓢": 3995,
      "瓣": 3996,
      "瓤": 3997,
      "瓦": 3998,
      "瓪": 3999,
      "瓮": 4000,
      "瓯": 4001,
      "瓶": 4002,
      "瓷": 4003,
      "甄": 4004,
      "甏": 4005,
      "甘": 4006,
      "甚": 4007,
      "甜": 4008,
      "生": 4009,
      "產": 4010,
      "甥": 4011,
      "用": 4012,
      "甩": 4013,
      "甪": 4014,
      "甫": 4015,
      "甭": 4016,
      "田": 4017,
      "由": 4018,
      "甲": 4019,
      "申": 4020,
      "电": 4021,
      "男": 4022,
      "甸": 4023,
      "町": 4024,
      "画": 4025,
      "畅": 4026,
      "界": 4027,
      "畏": 4028,
      "畔": 4029,
      "留": 4030,
      "畜": 4031,
      "畢": 4032,
      "畤": 4033,
      "略": 4034,
      "畦": 4035,
      "番": 4036,
      "畫": 4037,
      "畯": 4038,
      "畴": 4039,
      "當": 4040,
      "畸": 4041,
      "疆": 4042,
      "疋": 4043,
      "疏": 4044,
      "疑": 4045,
      "疒": 4046,
      "疗": 4047,
      "疙": 4048,
      "疚": 4049,
      "疡": 4050,
      "疣": 4051,
      "疤": 4052,
      "疫": 4053,
      "疮": 4054,
      "疯": 4055,
      "疱": 4056,
      "疲": 4057,
      "疵": 4058,
      "疸": 4059,
      "疹": 4060,
      "疼": 4061,
      "疽": 4062,
      "疾": 4063,
      "病": 4064,
      "症": 4065,
      "痊": 4066,
      "痒": 4067,
      "痔": 4068,
      "痕": 4069,
      "痘": 4070,
      "痛": 4071,
      "痞": 4072,
      "痢": 4073,
      "痣": 4074,
      "痤": 4075,
      "痦": 4076,
      "痨": 4077,
      "痪": 4078,
      "痫": 4079,
      "痰": 4080,
      "痴": 4081,
      "痹": 4082,
      "痾": 4083,
      "痿": 4084,
      "瘀": 4085,
      "瘁": 4086,
      "瘊": 4087,
      "瘋": 4088,
      "瘌": 4089,
      "瘓": 4090,
      "瘙": 4091,
      "瘟": 4092,
      "瘠": 4093,
      "瘡": 4094,
      "瘤": 4095,
      "瘦": 4096,
      "瘩": 4097,
      "瘪": 4098,
      "瘫": 4099,
      "瘸": 4100,
      "瘾": 4101,
      "癌": 4102,
      "癖": 4103,
      "癜": 4104,
      "癞": 4105,
      "癡": 4106,
      "癢": 4107,
      "癣": 4108,
      "癥": 4109,
      "癧": 4110,
      "癪": 4111,
      "癫": 4112,
      "癱": 4113,
      "癶": 4114,
      "癸": 4115,
      "登": 4116,
      "發": 4117,
      "白": 4118,
      "百": 4119,
      "皂": 4120,
      "的": 4121,
      "皆": 4122,
      "皇": 4123,
      "皈": 4124,
      "皋": 4125,
      "皎": 4126,
      "皑": 4127,
      "皓": 4128,
      "皖": 4129,
      "皙": 4130,
      "皮": 4131,
      "皱": 4132,
      "皴": 4133,
      "皺": 4134,
      "皿": 4135,
      "盂": 4136,
      "盅": 4137,
      "盆": 4138,
      "盈": 4139,
      "益": 4140,
      "盎": 4141,
      "盏": 4142,
      "盐": 4143,
      "监": 4144,
      "盒": 4145,
      "盔": 4146,
      "盖": 4147,
      "盗": 4148,
      "盘": 4149,
      "盛": 4150,
      "盜": 4151,
      "盟": 4152,
      "盡": 4153,
      "監": 4154,
      "盤": 4155,
      "盧": 4156,
      "目": 4157,
      "盯": 4158,
      "盱": 4159,
      "盲": 4160,
      "直": 4161,
      "相": 4162,
      "盹": 4163,
      "盼": 4164,
      "盾": 4165,
      "省": 4166,
      "眉": 4167,
      "看": 4168,
      "眙": 4169,
      "真": 4170,
      "眠": 4171,
      "眨": 4172,
      "眩": 4173,
      "眯": 4174,
      "眶": 4175,
      "眷": 4176,
      "眸": 4177,
      "眹": 4178,
      "眺": 4179,
      "眼": 4180,
      "眾": 4181,
      "着": 4182,
      "睁": 4183,
      "睇": 4184,
      "睏": 4185,
      "睐": 4186,
      "睔": 4187,
      "睛": 4188,
      "睡": 4189,
      "睢": 4190,
      "督": 4191,
      "睦": 4192,
      "睧": 4193,
      "睪": 4194,
      "睫": 4195,
      "睬": 4196,
      "睹": 4197,
      "睾": 4198,
      "睿": 4199,
      "瞂": 4200,
      "瞄": 4201,
      "瞅": 4202,
      "瞌": 4203,
      "瞎": 4204,
      "瞑": 4205,
      "瞒": 4206,
      "瞓": 4207,
      "瞟": 4208,
      "瞠": 4209,
      "瞥": 4210,
      "瞧": 4211,
      "瞩": 4212,
      "瞪": 4213,
      "瞬": 4214,
      "瞳": 4215,
      "瞻": 4216,
      "瞿": 4217,
      "矛": 4218,
      "矜": 4219,
      "矢": 4220,
      "矣": 4221,
      "知": 4222,
      "矩": 4223,
      "矫": 4224,
      "矬": 4225,
      "短": 4226,
      "矮": 4227,
      "矯": 4228,
      "石": 4229,
      "矶": 4230,
      "矸": 4231,
      "矿": 4232,
      "码": 4233,
      "砂": 4234,
      "砌": 4235,
      "砍": 4236,
      "砒": 4237,
      "研": 4238,
      "砖": 4239,
      "砚": 4240,
      "砝": 4241,
      "砢": 4242,
      "砣": 4243,
      "砥": 4244,
      "砧": 4245,
      "砰": 4246,
      "破": 4247,
      "砷": 4248,
      "砸": 4249,
      "砺": 4250,
      "砾": 4251,
      "础": 4252,
      "硅": 4253,
      "硌": 4254,
      "硕": 4255,
      "硝": 4256,
      "硡": 4257,
      "硫": 4258,
      "硬": 4259,
      "确": 4260,
      "硯": 4261,
      "硼": 4262,
      "碁": 4263,
      "碇": 4264,
      "碉": 4265,
      "碌": 4266,
      "碍": 4267,
      "碎": 4268,
      "碑": 4269,
      "碗": 4270,
      "碘": 4271,
      "碜": 4272,
      "碟": 4273,
      "碣": 4274,
      "碧": 4275,
      "碩": 4276,
      "碰": 4277,
      "碱": 4278,
      "碳": 4279,
      "碴": 4280,
      "確": 4281,
      "碼": 4282,
      "碾": 4283,
      "磁": 4284,
      "磅": 4285,
      "磉": 4286,
      "磊": 4287,
      "磋": 4288,
      "磐": 4289,
      "磕": 4290,
      "磡": 4291,
      "磨": 4292,
      "磬": 4293,
      "磴": 4294,
      "磷": 4295,
      "礁": 4296,
      "礴": 4297,
      "礸": 4298,
      "示": 4299,
      "礼": 4300,
      "社": 4301,
      "祀": 4302,
      "祁": 4303,
      "祈": 4304,
      "祎": 4305,
      "祐": 4306,
      "祖": 4307,
      "祛": 4308,
      "祜": 4309,
      "祝": 4310,
      "神": 4311,
      "祠": 4312,
      "祢": 4313,
      "祤": 4314,
      "祥": 4315,
      "票": 4316,
      "祭": 4317,
      "祯": 4318,
      "祰": 4319,
      "祵": 4320,
      "祷": 4321,
      "祸": 4322,
      "祹": 4323,
      "祺": 4324,
      "禀": 4325,
      "禁": 4326,
      "禄": 4327,
      "禅": 4328,
      "禍": 4329,
      "福": 4330,
      "禧": 4331,
      "禮": 4332,
      "禹": 4333,
      "离": 4334,
      "禽": 4335,
      "禾": 4336,
      "禿": 4337,
      "秀": 4338,
      "私": 4339,
      "秃": 4340,
      "秉": 4341,
      "秋": 4342,
      "种": 4343,
      "科": 4344,
      "秒": 4345,
      "秘": 4346,
      "秝": 4347,
      "租": 4348,
      "秤": 4349,
      "秦": 4350,
      "秧": 4351,
      "秩": 4352,
      "积": 4353,
      "称": 4354,
      "移": 4355,
      "秽": 4356,
      "稀": 4357,
      "程": 4358,
      "稍": 4359,
      "税": 4360,
      "稚": 4361,
      "稞": 4362,
      "稠": 4363,
      "稣": 4364,
      "種": 4365,
      "稱": 4366,
      "稳": 4367,
      "稻": 4368,
      "稼": 4369,
      "稽": 4370,
      "稿": 4371,
      "穆": 4372,
      "積": 4373,
      "穎": 4374,
      "穗": 4375,
      "穠": 4376,
      "穪": 4377,
      "穴": 4378,
      "究": 4379,
      "穷": 4380,
      "穹": 4381,
      "空": 4382,
      "穿": 4383,
      "突": 4384,
      "窃": 4385,
      "窄": 4386,
      "窈": 4387,
      "窍": 4388,
      "窑": 4389,
      "窒": 4390,
      "窕": 4391,
      "窖": 4392,
      "窗": 4393,
      "窘": 4394,
      "窜": 4395,
      "窝": 4396,
      "窟": 4397,
      "窥": 4398,
      "窦": 4399,
      "窩": 4400,
      "窮": 4401,
      "窿": 4402,
      "立": 4403,
      "竑": 4404,
      "竖": 4405,
      "站": 4406,
      "竞": 4407,
      "竟": 4408,
      "章": 4409,
      "竣": 4410,
      "童": 4411,
      "竭": 4412,
      "端": 4413,
      "竹": 4414,
      "竺": 4415,
      "竽": 4416,
      "竿": 4417,
      "笃": 4418,
      "笆": 4419,
      "笋": 4420,
      "笑": 4421,
      "笔": 4422,
      "笙": 4423,
      "笛": 4424,
      "笞": 4425,
      "笠": 4426,
      "符": 4427,
      "笨": 4428,
      "第": 4429,
      "笼": 4430,
      "筅": 4431,
      "筆": 4432,
      "等": 4433,
      "筋": 4434,
      "筐": 4435,
      "筑": 4436,
      "筒": 4437,
      "答": 4438,
      "策": 4439,
      "筘": 4440,
      "筛": 4441,
      "筝": 4442,
      "筠": 4443,
      "筢": 4444,
      "筱": 4445,
      "筵": 4446,
      "筷": 4447,
      "筹": 4448,
      "签": 4449,
      "简": 4450,
      "箍": 4451,
      "箕": 4452,
      "算": 4453,
      "管": 4454,
      "箩": 4455,
      "箪": 4456,
      "箫": 4457,
      "箭": 4458,
      "箱": 4459,
      "箴": 4460,
      "節": 4461,
      "範": 4462,
      "篆": 4463,
      "篇": 4464,
      "篓": 4465,
      "篮": 4466,
      "篱": 4467,
      "篷": 4468,
      "簇": 4469,
      "簟": 4470,
      "簡": 4471,
      "簧": 4472,
      "簪": 4473,
      "簸": 4474,
      "籁": 4475,
      "籍": 4476,
      "籟": 4477,
      "籤": 4478,
      "米": 4479,
      "类": 4480,
      "籽": 4481,
      "籿": 4482,
      "粉": 4483,
      "粑": 4484,
      "粒": 4485,
      "粗": 4486,
      "粘": 4487,
      "粟": 4488,
      "粤": 4489,
      "粥": 4490,
      "粪": 4491,
      "粮": 4492,
      "粱": 4493,
      "粲": 4494,
      "粹": 4495,
      "粽": 4496,
      "精": 4497,
      "粿": 4498,
      "糁": 4499,
      "糅": 4500,
      "糊": 4501,
      "糕": 4502,
      "糖": 4503,
      "糗": 4504,
      "糙": 4505,
      "糜": 4506,
      "糟": 4507,
      "糠": 4508,
      "糯": 4509,
      "糳": 4510,
      "糸": 4511,
      "系": 4512,
      "紀": 4513,
      "約": 4514,
      "紅": 4515,
      "紊": 4516,
      "紋": 4517,
      "納": 4518,
      "純": 4519,
      "紙": 4520,
      "級": 4521,
      "紟": 4522,
      "素": 4523,
      "索": 4524,
      "紧": 4525,
      "紫": 4526,
      "累": 4527,
      "細": 4528,
      "紳": 4529,
      "紹": 4530,
      "終": 4531,
      "組": 4532,
      "結": 4533,
      "絕": 4534,
      "絡": 4535,
      "給": 4536,
      "絮": 4537,
      "統": 4538,
      "絲": 4539,
      "經": 4540,
      "綠": 4541,
      "綦": 4542,
      "維": 4543,
      "網": 4544,
      "綸": 4545,
      "緊": 4546,
      "緒": 4547,
      "線": 4548,
      "練": 4549,
      "總": 4550,
      "繁": 4551,
      "織": 4552,
      "繞": 4553,
      "繫": 4554,
      "繼": 4555,
      "續": 4556,
      "纍": 4557,
      "纏": 4558,
      "纠": 4559,
      "纡": 4560,
      "红": 4561,
      "纣": 4562,
      "纤": 4563,
      "约": 4564,
      "级": 4565,
      "纨": 4566,
      "纪": 4567,
      "纫": 4568,
      "纬": 4569,
      "纯": 4570,
      "纱": 4571,
      "纲": 4572,
      "纳": 4573,
      "纵": 4574,
      "纶": 4575,
      "纷": 4576,
      "纸": 4577,
      "纹": 4578,
      "纺": 4579,
      "纽": 4580,
      "线": 4581,
      "练": 4582,
      "组": 4583,
      "绅": 4584,
      "细": 4585,
      "织": 4586,
      "终": 4587,
      "绊": 4588,
      "绍": 4589,
      "绎": 4590,
      "经": 4591,
      "绑": 4592,
      "绒": 4593,
      "结": 4594,
      "绔": 4595,
      "绕": 4596,
      "绘": 4597,
      "给": 4598,
      "绚": 4599,
      "绛": 4600,
      "络": 4601,
      "绝": 4602,
      "绞": 4603,
      "统": 4604,
      "绢": 4605,
      "绣": 4606,
      "绥": 4607,
      "绦": 4608,
      "继": 4609,
      "绩": 4610,
      "绪": 4611,
      "绫": 4612,
      "续": 4613,
      "绮": 4614,
      "绯": 4615,
      "绰": 4616,
      "绳": 4617,
      "维": 4618,
      "绵": 4619,
      "绷": 4620,
      "绸": 4621,
      "综": 4622,
      "绽": 4623,
      "绾": 4624,
      "绿": 4625,
      "缀": 4626,
      "缅": 4627,
      "缆": 4628,
      "缇": 4629,
      "缉": 4630,
      "缏": 4631,
      "缓": 4632,
      "缔": 4633,
      "缕": 4634,
      "编": 4635,
      "缘": 4636,
      "缚": 4637,
      "缝": 4638,
      "缞": 4639,
      "缟": 4640,
      "缠": 4641,
      "缢": 4642,
      "缩": 4643,
      "缪": 4644,
      "缭": 4645,
      "缳": 4646,
      "缴": 4647,
      "缸": 4648,
      "缺": 4649,
      "罂": 4650,
      "罐": 4651,
      "网": 4652,
      "罔": 4653,
      "罕": 4654,
      "罗": 4655,
      "罚": 4656,
      "罡": 4657,
      "罢": 4658,
      "罩": 4659,
      "罪": 4660,
      "置": 4661,
      "罴": 4662,
      "罵": 4663,
      "羁": 4664,
      "羅": 4665,
      "羊": 4666,
      "羌": 4667,
      "美": 4668,
      "羔": 4669,
      "羚": 4670,
      "羞": 4671,
      "羟": 4672,
      "羡": 4673,
      "群": 4674,
      "羧": 4675,
      "羨": 4676,
      "義": 4677,
      "羯": 4678,
      "羲": 4679,
      "羹": 4680,
      "羽": 4681,
      "羿": 4682,
      "翀": 4683,
      "翁": 4684,
      "翅": 4685,
      "翊": 4686,
      "翌": 4687,
      "翎": 4688,
      "習": 4689,
      "翔": 4690,
      "翘": 4691,
      "翟": 4692,
      "翠": 4693,
      "翡": 4694,
      "翩": 4695,
      "翰": 4696,
      "翱": 4697,
      "翳": 4698,
      "翹": 4699,
      "翻": 4700,
      "翼": 4701,
      "耀": 4702,
      "老": 4703,
      "耂": 4704,
      "考": 4705,
      "耄": 4706,
      "者": 4707,
      "耋": 4708,
      "而": 4709,
      "耍": 4710,
      "耐": 4711,
      "耕": 4712,
      "耗": 4713,
      "耘": 4714,
      "耙": 4715,
      "耦": 4716,
      "耳": 4717,
      "耶": 4718,
      "耷": 4719,
      "耸": 4720,
      "耻": 4721,
      "耽": 4722,
      "耿": 4723,
      "聂": 4724,
      "聆": 4725,
      "聊": 4726,
      "聋": 4727,
      "职": 4728,
      "聒": 4729,
      "联": 4730,
      "聖": 4731,
      "聘": 4732,
      "聚": 4733,
      "聞": 4734,
      "聪": 4735,
      "聯": 4736,
      "聰": 4737,
      "聱": 4738,
      "聲": 4739,
      "聽": 4740,
      "聿": 4741,
      "肀": 4742,
      "肃": 4743,
      "肆": 4744,
      "肇": 4745,
      "肉": 4746,
      "肋": 4747,
      "肌": 4748,
      "肏": 4749,
      "肓": 4750,
      "肖": 4751,
      "肘": 4752,
      "肚": 4753,
      "肛": 4754,
      "肝": 4755,
      "肠": 4756,
      "股": 4757,
      "肢": 4758,
      "肤": 4759,
      "肥": 4760,
      "肩": 4761,
      "肪": 4762,
      "肮": 4763,
      "肯": 4764,
      "肱": 4765,
      "育": 4766,
      "肴": 4767,
      "肺": 4768,
      "肼": 4769,
      "肽": 4770,
      "肾": 4771,
      "肿": 4772,
      "胀": 4773,
      "胁": 4774,
      "胃": 4775,
      "胄": 4776,
      "胆": 4777,
      "背": 4778,
      "胎": 4779,
      "胖": 4780,
      "胗": 4781,
      "胚": 4782,
      "胜": 4783,
      "胞": 4784,
      "胡": 4785,
      "胤": 4786,
      "胥": 4787,
      "胧": 4788,
      "胭": 4789,
      "胯": 4790,
      "胰": 4791,
      "胱": 4792,
      "胳": 4793,
      "胶": 4794,
      "胸": 4795,
      "胺": 4796,
      "能": 4797,
      "脂": 4798,
      "脆": 4799,
      "脉": 4800,
      "脊": 4801,
      "脏": 4802,
      "脐": 4803,
      "脑": 4804,
      "脓": 4805,
      "脖": 4806,
      "脚": 4807,
      "脫": 4808,
      "脯": 4809,
      "脱": 4810,
      "脸": 4811,
      "脾": 4812,
      "腆": 4813,
      "腊": 4814,
      "腋": 4815,
      "腌": 4816,
      "腎": 4817,
      "腐": 4818,
      "腑": 4819,
      "腔": 4820,
      "腕": 4821,
      "腘": 4822,
      "腚": 4823,
      "腥": 4824,
      "腦": 4825,
      "腩": 4826,
      "腫": 4827,
      "腭": 4828,
      "腮": 4829,
      "腰": 4830,
      "腱": 4831,
      "腳": 4832,
      "腸": 4833,
      "腹": 4834,
      "腺": 4835,
      "腻": 4836,
      "腼": 4837,
      "腾": 4838,
      "腿": 4839,
      "膀": 4840,
      "膈": 4841,
      "膊": 4842,
      "膏": 4843,
      "膑": 4844,
      "膘": 4845,
      "膛": 4846,
      "膜": 4847,
      "膝": 4848,
      "膨": 4849,
      "膪": 4850,
      "膳": 4851,
      "膺": 4852,
      "膽": 4853,
      "臀": 4854,
      "臂": 4855,
      "臉": 4856,
      "臊": 4857,
      "臘": 4858,
      "臣": 4859,
      "臥": 4860,
      "臧": 4861,
      "自": 4862,
      "臭": 4863,
      "至": 4864,
      "致": 4865,
      "臵": 4866,
      "臻": 4867,
      "臼": 4868,
      "臾": 4869,
      "舅": 4870,
      "與": 4871,
      "興": 4872,
      "舊": 4873,
      "舌": 4874,
      "舍": 4875,
      "舒": 4876,
      "舔": 4877,
      "舛": 4878,
      "舜": 4879,
      "舞": 4880,
      "舟": 4881,
      "航": 4882,
      "般": 4883,
      "舰": 4884,
      "舵": 4885,
      "舶": 4886,
      "舸": 4887,
      "船": 4888,
      "舻": 4889,
      "艇": 4890,
      "艘": 4891,
      "艚": 4892,
      "艮": 4893,
      "良": 4894,
      "艰": 4895,
      "色": 4896,
      "艳": 4897,
      "艸": 4898,
      "艹": 4899,
      "艺": 4900,
      "艾": 4901,
      "节": 4902,
      "芃": 4903,
      "芊": 4904,
      "芋": 4905,
      "芍": 4906,
      "芎": 4907,
      "芒": 4908,
      "芔": 4909,
      "芙": 4910,
      "芜": 4911,
      "芝": 4912,
      "芡": 4913,
      "芥": 4914,
      "芦": 4915,
      "芩": 4916,
      "芪": 4917,
      "芫": 4918,
      "芬": 4919,
      "芭": 4920,
      "芮": 4921,
      "芯": 4922,
      "花": 4923,
      "芳": 4924,
      "芷": 4925,
      "芸": 4926,
      "芹": 4927,
      "芽": 4928,
      "苇": 4929,
      "苈": 4930,
      "苍": 4931,
      "苏": 4932,
      "苑": 4933,
      "苓": 4934,
      "苔": 4935,
      "苕": 4936,
      "苗": 4937,
      "苙": 4938,
      "苛": 4939,
      "苞": 4940,
      "苟": 4941,
      "苡": 4942,
      "若": 4943,
      "苦": 4944,
      "苧": 4945,
      "苯": 4946,
      "英": 4947,
      "苷": 4948,
      "苹": 4949,
      "苼": 4950,
      "茁": 4951,
      "茂": 4952,
      "范": 4953,
      "茄": 4954,
      "茅": 4955,
      "茉": 4956,
      "茎": 4957,
      "茑": 4958,
      "茗": 4959,
      "茜": 4960,
      "茣": 4961,
      "茧": 4962,
      "茨": 4963,
      "茫": 4964,
      "茬": 4965,
      "茱": 4966,
      "茴": 4967,
      "茵": 4968,
      "茶": 4969,
      "茸": 4970,
      "茹": 4971,
      "茻": 4972,
      "荀": 4973,
      "荃": 4974,
      "荆": 4975,
      "荇": 4976,
      "草": 4977,
      "荐": 4978,
      "荑": 4979,
      "荒": 4980,
      "荔": 4981,
      "荜": 4982,
      "荟": 4983,
      "荠": 4984,
      "荡": 4985,
      "荣": 4986,
      "荤": 4987,
      "荧": 4988,
      "荪": 4989,
      "荫": 4990,
      "药": 4991,
      "荷": 4992,
      "荸": 4993,
      "荻": 4994,
      "荼": 4995,
      "荽": 4996,
      "莆": 4997,
      "莉": 4998,
      "莊": 4999,
      "莍": 5000,
      "莎": 5001,
      "莒": 5002,
      "莓": 5003,
      "莘": 5004,
      "莜": 5005,
      "莞": 5006,
      "莠": 5007,
      "莪": 5008,
      "莫": 5009,
      "莱": 5010,
      "莲": 5011,
      "莴": 5012,
      "获": 5013,
      "莹": 5014,
      "莺": 5015,
      "莼": 5016,
      "莽": 5017,
      "菀": 5018,
      "菁": 5019,
      "菅": 5020,
      "菇": 5021,
      "菊": 5022,
      "菌": 5023,
      "菖": 5024,
      "菜": 5025,
      "菠": 5026,
      "菡": 5027,
      "菩": 5028,
      "華": 5029,
      "菱": 5030,
      "菲": 5031,
      "萄": 5032,
      "萋": 5033,
      "萌": 5034,
      "萍": 5035,
      "萎": 5036,
      "萝": 5037,
      "萤": 5038,
      "营": 5039,
      "萧": 5040,
      "萨": 5041,
      "萬": 5042,
      "萱": 5043,
      "萸": 5044,
      "萼": 5045,
      "落": 5046,
      "葉": 5047,
      "著": 5048,
      "葛": 5049,
      "葡": 5050,
      "董": 5051,
      "葩": 5052,
      "葫": 5053,
      "葬": 5054,
      "葯": 5055,
      "葱": 5056,
      "葳": 5057,
      "葵": 5058,
      "蒂": 5059,
      "蒋": 5060,
      "蒎": 5061,
      "蒙": 5062,
      "蒜": 5063,
      "蒡": 5064,
      "蒨": 5065,
      "蒯": 5066,
      "蒲": 5067,
      "蒸": 5068,
      "蒹": 5069,
      "蒺": 5070,
      "蒼": 5071,
      "蒽": 5072,
      "蒿": 5073,
      "蓄": 5074,
      "蓉": 5075,
      "蓑": 5076,
      "蓓": 5077,
      "蓝": 5078,
      "蓟": 5079,
      "蓦": 5080,
      "蓬": 5081,
      "蔑": 5082,
      "蔓": 5083,
      "蔗": 5084,
      "蔚": 5085,
      "蔡": 5086,
      "蔣": 5087,
      "蔥": 5088,
      "蔫": 5089,
      "蔬": 5090,
      "蔷": 5091,
      "蔺": 5092,
      "蔻": 5093,
      "蔽": 5094,
      "蕃": 5095,
      "蕉": 5096,
      "蕊": 5097,
      "蕐": 5098,
      "蕗": 5099,
      "蕙": 5100,
      "蕤": 5101,
      "蕩": 5102,
      "蕴": 5103,
      "蕸": 5104,
      "蕾": 5105,
      "薄": 5106,
      "薇": 5107,
      "薛": 5108,
      "薦": 5109,
      "薩": 5110,
      "薪": 5111,
      "薫": 5112,
      "薯": 5113,
      "薰": 5114,
      "薹": 5115,
      "藉": 5116,
      "藍": 5117,
      "藏": 5118,
      "藐": 5119,
      "藓": 5120,
      "藕": 5121,
      "藜": 5122,
      "藝": 5123,
      "藤": 5124,
      "藥": 5125,
      "藩": 5126,
      "藻": 5127,
      "藿": 5128,
      "蘅": 5129,
      "蘇": 5130,
      "蘊": 5131,
      "蘋": 5132,
      "蘑": 5133,
      "蘖": 5134,
      "蘭": 5135,
      "蘸": 5136,
      "虎": 5137,
      "虏": 5138,
      "虐": 5139,
      "虑": 5140,
      "虔": 5141,
      "處": 5142,
      "虚": 5143,
      "虛": 5144,
      "虞": 5145,
      "號": 5146,
      "虩": 5147,
      "虫": 5148,
      "虱": 5149,
      "虹": 5150,
      "虽": 5151,
      "虾": 5152,
      "蚀": 5153,
      "蚁": 5154,
      "蚂": 5155,
      "蚊": 5156,
      "蚌": 5157,
      "蚍": 5158,
      "蚓": 5159,
      "蚕": 5160,
      "蚝": 5161,
      "蚣": 5162,
      "蚤": 5163,
      "蚧": 5164,
      "蚨": 5165,
      "蚪": 5166,
      "蚬": 5167,
      "蚯": 5168,
      "蚱": 5169,
      "蛀": 5170,
      "蛄": 5171,
      "蛆": 5172,
      "蛇": 5173,
      "蛊": 5174,
      "蛋": 5175,
      "蛌": 5176,
      "蛎": 5177,
      "蛐": 5178,
      "蛔": 5179,
      "蛙": 5180,
      "蛛": 5181,
      "蛟": 5182,
      "蛤": 5183,
      "蛭": 5184,
      "蛮": 5185,
      "蛰": 5186,
      "蛹": 5187,
      "蛾": 5188,
      "蜀": 5189,
      "蜂": 5190,
      "蜈": 5191,
      "蜊": 5192,
      "蜒": 5193,
      "蜓": 5194,
      "蜕": 5195,
      "蜗": 5196,
      "蜘": 5197,
      "蜚": 5198,
      "蜜": 5199,
      "蜡": 5200,
      "蜢": 5201,
      "蜥": 5202,
      "蜴": 5203,
      "蜷": 5204,
      "蜻": 5205,
      "蜿": 5206,
      "蝇": 5207,
      "蝈": 5208,
      "蝉": 5209,
      "蝌": 5210,
      "蝎": 5211,
      "蝗": 5212,
      "蝙": 5213,
      "蝠": 5214,
      "蝯": 5215,
      "蝴": 5216,
      "蝶": 5217,
      "蝼": 5218,
      "螂": 5219,
      "螃": 5220,
      "螆": 5221,
      "融": 5222,
      "螞": 5223,
      "螟": 5224,
      "螺": 5225,
      "蟀": 5226,
      "蟆": 5227,
      "蟋": 5228,
      "蟑": 5229,
      "蟒": 5230,
      "蟦": 5231,
      "蟬": 5232,
      "蟲": 5233,
      "蟹": 5234,
      "蟻": 5235,
      "蠕": 5236,
      "蠛": 5237,
      "蠢": 5238,
      "蠻": 5239,
      "血": 5240,
      "衅": 5241,
      "行": 5242,
      "衍": 5243,
      "衔": 5244,
      "衕": 5245,
      "街": 5246,
      "衝": 5247,
      "衡": 5248,
      "衢": 5249,
      "衣": 5250,
      "补": 5251,
      "表": 5252,
      "衩": 5253,
      "衫": 5254,
      "衬": 5255,
      "衮": 5256,
      "衰": 5257,
      "衲": 5258,
      "衷": 5259,
      "衹": 5260,
      "衾": 5261,
      "衿": 5262,
      "袁": 5263,
      "袄": 5264,
      "袅": 5265,
      "袆": 5266,
      "袈": 5267,
      "袋": 5268,
      "袍": 5269,
      "袖": 5270,
      "袜": 5271,
      "袤": 5272,
      "被": 5273,
      "袭": 5274,
      "裁": 5275,
      "裂": 5276,
      "装": 5277,
      "裆": 5278,
      "裏": 5279,
      "裔": 5280,
      "裕": 5281,
      "裘": 5282,
      "裙": 5283,
      "裝": 5284,
      "裟": 5285,
      "裡": 5286,
      "裤": 5287,
      "裱": 5288,
      "裳": 5289,
      "裴": 5290,
      "裸": 5291,
      "裹": 5292,
      "褂": 5293,
      "複": 5294,
      "褒": 5295,
      "褔": 5296,
      "褘": 5297,
      "褚": 5298,
      "褛": 5299,
      "褥": 5300,
      "褪": 5301,
      "褫": 5302,
      "褲": 5303,
      "褴": 5304,
      "褶": 5305,
      "襄": 5306,
      "襜": 5307,
      "襟": 5308,
      "襲": 5309,
      "西": 5310,
      "要": 5311,
      "覃": 5312,
      "覅": 5313,
      "覆": 5314,
      "見": 5315,
      "規": 5316,
      "視": 5317,
      "親": 5318,
      "覺": 5319,
      "见": 5320,
      "观": 5321,
      "规": 5322,
      "觅": 5323,
      "视": 5324,
      "览": 5325,
      "觉": 5326,
      "觊": 5327,
      "觎": 5328,
      "觐": 5329,
      "角": 5330,
      "觜": 5331,
      "觞": 5332,
      "解": 5333,
      "触": 5334,
      "言": 5335,
      "計": 5336,
      "討": 5337,
      "記": 5338,
      "訪": 5339,
      "許": 5340,
      "訴": 5341,
      "訸": 5342,
      "註": 5343,
      "評": 5344,
      "詞": 5345,
      "詠": 5346,
      "試": 5347,
      "詩": 5348,
      "話": 5349,
      "該": 5350,
      "詹": 5351,
      "誇": 5352,
      "誉": 5353,
      "誌": 5354,
      "認": 5355,
      "誐": 5356,
      "誒": 5357,
      "誓": 5358,
      "誕": 5359,
      "語": 5360,
      "誠": 5361,
      "說": 5362,
      "説": 5363,
      "誰": 5364,
      "課": 5365,
      "調": 5366,
      "談": 5367,
      "請": 5368,
      "諒": 5369,
      "論": 5370,
      "諪": 5371,
      "諳": 5372,
      "諾": 5373,
      "謂": 5374,
      "謊": 5375,
      "講": 5376,
      "謝": 5377,
      "證": 5378,
      "識": 5379,
      "譜": 5380,
      "警": 5381,
      "譬": 5382,
      "議": 5383,
      "護": 5384,
      "讀": 5385,
      "變": 5386,
      "讓": 5387,
      "讚": 5388,
      "计": 5389,
      "订": 5390,
      "认": 5391,
      "讨": 5392,
      "让": 5393,
      "讪": 5394,
      "训": 5395,
      "议": 5396,
      "讯": 5397,
      "记": 5398,
      "讲": 5399,
      "讳": 5400,
      "讶": 5401,
      "讷": 5402,
      "许": 5403,
      "讹": 5404,
      "论": 5405,
      "讼": 5406,
      "讽": 5407,
      "设": 5408,
      "访": 5409,
      "诀": 5410,
      "证": 5411,
      "诂": 5412,
      "评": 5413,
      "诅": 5414,
      "识": 5415,
      "诈": 5416,
      "诉": 5417,
      "诊": 5418,
      "诋": 5419,
      "诌": 5420,
      "词": 5421,
      "诏": 5422,
      "译": 5423,
      "试": 5424,
      "诗": 5425,
      "诘": 5426,
      "诚": 5427,
      "诛": 5428,
      "话": 5429,
      "诞": 5430,
      "诡": 5431,
      "询": 5432,
      "诤": 5433,
      "该": 5434,
      "详": 5435,
      "诧": 5436,
      "诩": 5437,
      "诫": 5438,
      "诬": 5439,
      "语": 5440,
      "误": 5441,
      "诱": 5442,
      "诲": 5443,
      "诳": 5444,
      "说": 5445,
      "诵": 5446,
      "诶": 5447,
      "请": 5448,
      "诸": 5449,
      "诺": 5450,
      "读": 5451,
      "诽": 5452,
      "课": 5453,
      "诿": 5454,
      "谀": 5455,
      "谁": 5456,
      "调": 5457,
      "谄": 5458,
      "谅": 5459,
      "谆": 5460,
      "谈": 5461,
      "谊": 5462,
      "谋": 5463,
      "谍": 5464,
      "谎": 5465,
      "谏": 5466,
      "谐": 5467,
      "谑": 5468,
      "谓": 5469,
      "谔": 5470,
      "谕": 5471,
      "谗": 5472,
      "谙": 5473,
      "谚": 5474,
      "谛": 5475,
      "谜": 5476,
      "谝": 5477,
      "谟": 5478,
      "谡": 5479,
      "谢": 5480,
      "谣": 5481,
      "谤": 5482,
      "谦": 5483,
      "谧": 5484,
      "谨": 5485,
      "谪": 5486,
      "谬": 5487,
      "谭": 5488,
      "谱": 5489,
      "谴": 5490,
      "谷": 5491,
      "豁": 5492,
      "豆": 5493,
      "豈": 5494,
      "豉": 5495,
      "豌": 5496,
      "豐": 5497,
      "豔": 5498,
      "豚": 5499,
      "象": 5500,
      "豪": 5501,
      "豫": 5502,
      "豬": 5503,
      "豸": 5504,
      "豹": 5505,
      "貂": 5506,
      "貅": 5507,
      "貌": 5508,
      "貓": 5509,
      "貔": 5510,
      "貝": 5511,
      "負": 5512,
      "財": 5513,
      "貨": 5514,
      "貪": 5515,
      "貮": 5516,
      "買": 5517,
      "費": 5518,
      "貼": 5519,
      "賀": 5520,
      "資": 5521,
      "賊": 5522,
      "賓": 5523,
      "賢": 5524,
      "賣": 5525,
      "賤": 5526,
      "質": 5527,
      "賺": 5528,
      "贊": 5529,
      "贏": 5530,
      "贝": 5531,
      "贞": 5532,
      "负": 5533,
      "贡": 5534,
      "财": 5535,
      "责": 5536,
      "贤": 5537,
      "败": 5538,
      "账": 5539,
      "货": 5540,
      "质": 5541,
      "贩": 5542,
      "贪": 5543,
      "贫": 5544,
      "贬": 5545,
      "购": 5546,
      "贯": 5547,
      "贰": 5548,
      "贱": 5549,
      "贴": 5550,
      "贵": 5551,
      "贷": 5552,
      "贸": 5553,
      "费": 5554,
      "贺": 5555,
      "贻": 5556,
      "贼": 5557,
      "贾": 5558,
      "贿": 5559,
      "赁": 5560,
      "赂": 5561,
      "赃": 5562,
      "资": 5563,
      "赅": 5564,
      "赊": 5565,
      "赋": 5566,
      "赌": 5567,
      "赎": 5568,
      "赏": 5569,
      "赐": 5570,
      "赓": 5571,
      "赔": 5572,
      "赖": 5573,
      "赘": 5574,
      "赚": 5575,
      "赛": 5576,
      "赝": 5577,
      "赞": 5578,
      "赟": 5579,
      "赠": 5580,
      "赢": 5581,
      "赣": 5582,
      "赤": 5583,
      "赦": 5584,
      "赫": 5585,
      "赭": 5586,
      "走": 5587,
      "赴": 5588,
      "赵": 5589,
      "赶": 5590,
      "起": 5591,
      "趁": 5592,
      "超": 5593,
      "越": 5594,
      "趋": 5595,
      "趐": 5596,
      "趕": 5597,
      "趙": 5598,
      "趟": 5599,
      "趣": 5600,
      "足": 5601,
      "趴": 5602,
      "趵": 5603,
      "趸": 5604,
      "趾": 5605,
      "跃": 5606,
      "跆": 5607,
      "跋": 5608,
      "跌": 5609,
      "跎": 5610,
      "跑": 5611,
      "距": 5612,
      "跟": 5613,
      "跤": 5614,
      "跨": 5615,
      "跪": 5616,
      "跬": 5617,
      "路": 5618,
      "跳": 5619,
      "践": 5620,
      "跷": 5621,
      "跹": 5622,
      "跺": 5623,
      "跻": 5624,
      "踊": 5625,
      "踌": 5626,
      "踏": 5627,
      "踝": 5628,
      "踢": 5629,
      "踩": 5630,
      "踪": 5631,
      "踵": 5632,
      "踹": 5633,
      "蹂": 5634,
      "蹄": 5635,
      "蹈": 5636,
      "蹉": 5637,
      "蹊": 5638,
      "蹋": 5639,
      "蹦": 5640,
      "蹩": 5641,
      "蹬": 5642,
      "蹭": 5643,
      "蹲": 5644,
      "蹶": 5645,
      "躁": 5646,
      "躆": 5647,
      "躇": 5648,
      "躍": 5649,
      "躏": 5650,
      "身": 5651,
      "躬": 5652,
      "躯": 5653,
      "躲": 5654,
      "躺": 5655,
      "車": 5656,
      "軍": 5657,
      "軒": 5658,
      "較": 5659,
      "輔": 5660,
      "輕": 5661,
      "輝": 5662,
      "輩": 5663,
      "輸": 5664,
      "輻": 5665,
      "轉": 5666,
      "轞": 5667,
      "车": 5668,
      "轧": 5669,
      "轨": 5670,
      "轩": 5671,
      "转": 5672,
      "轭": 5673,
      "轮": 5674,
      "软": 5675,
      "轰": 5676,
      "轱": 5677,
      "轲": 5678,
      "轴": 5679,
      "轶": 5680,
      "轸": 5681,
      "轻": 5682,
      "轼": 5683,
      "载": 5684,
      "轿": 5685,
      "较": 5686,
      "辄": 5687,
      "辅": 5688,
      "辆": 5689,
      "辈": 5690,
      "辉": 5691,
      "辍": 5692,
      "辐": 5693,
      "辑": 5694,
      "输": 5695,
      "辕": 5696,
      "辖": 5697,
      "辗": 5698,
      "辘": 5699,
      "辙": 5700,
      "辛": 5701,
      "辜": 5702,
      "辞": 5703,
      "辟": 5704,
      "辣": 5705,
      "辦": 5706,
      "辨": 5707,
      "辩": 5708,
      "辫": 5709,
      "辰": 5710,
      "辱": 5711,
      "边": 5712,
      "辽": 5713,
      "达": 5714,
      "迁": 5715,
      "迂": 5716,
      "迄": 5717,
      "迅": 5718,
      "过": 5719,
      "迈": 5720,
      "迎": 5721,
      "运": 5722,
      "近": 5723,
      "返": 5724,
      "还": 5725,
      "这": 5726,
      "进": 5727,
      "远": 5728,
      "违": 5729,
      "连": 5730,
      "迟": 5731,
      "迠": 5732,
      "迦": 5733,
      "迩": 5734,
      "迪": 5735,
      "迫": 5736,
      "迭": 5737,
      "述": 5738,
      "迷": 5739,
      "迹": 5740,
      "追": 5741,
      "退": 5742,
      "送": 5743,
      "适": 5744,
      "逃": 5745,
      "逄": 5746,
      "逅": 5747,
      "逆": 5748,
      "选": 5749,
      "逊": 5750,
      "逍": 5751,
      "透": 5752,
      "逐": 5753,
      "逑": 5754,
      "递": 5755,
      "途": 5756,
      "逗": 5757,
      "這": 5758,
      "通": 5759,
      "逛": 5760,
      "逝": 5761,
      "逞": 5762,
      "速": 5763,
      "造": 5764,
      "逢": 5765,
      "連": 5766,
      "逮": 5767,
      "週": 5768,
      "進": 5769,
      "逵": 5770,
      "逸": 5771,
      "逻": 5772,
      "逼": 5773,
      "遁": 5774,
      "遂": 5775,
      "遇": 5776,
      "運": 5777,
      "遍": 5778,
      "過": 5779,
      "遏": 5780,
      "遑": 5781,
      "道": 5782,
      "達": 5783,
      "遗": 5784,
      "遛": 5785,
      "遝": 5786,
      "遞": 5787,
      "遠": 5788,
      "遢": 5789,
      "遣": 5790,
      "遥": 5791,
      "遨": 5792,
      "適": 5793,
      "遪": 5794,
      "遭": 5795,
      "遮": 5796,
      "遯": 5797,
      "遵": 5798,
      "選": 5799,
      "遺": 5800,
      "遼": 5801,
      "避": 5802,
      "邀": 5803,
      "邂": 5804,
      "邃": 5805,
      "還": 5806,
      "邊": 5807,
      "邋": 5808,
      "邑": 5809,
      "邓": 5810,
      "邛": 5811,
      "邝": 5812,
      "邢": 5813,
      "那": 5814,
      "邦": 5815,
      "邪": 5816,
      "邬": 5817,
      "邮": 5818,
      "邯": 5819,
      "邰": 5820,
      "邱": 5821,
      "邳": 5822,
      "邵": 5823,
      "邹": 5824,
      "邺": 5825,
      "邻": 5826,
      "郁": 5827,
      "郄": 5828,
      "郅": 5829,
      "郇": 5830,
      "郊": 5831,
      "郎": 5832,
      "郑": 5833,
      "郓": 5834,
      "郜": 5835,
      "郝": 5836,
      "郞": 5837,
      "郡": 5838,
      "郦": 5839,
      "郧": 5840,
      "部": 5841,
      "郭": 5842,
      "郵": 5843,
      "郸": 5844,
      "都": 5845,
      "鄂": 5846,
      "鄙": 5847,
      "鄢": 5848,
      "鄭": 5849,
      "酉": 5850,
      "酋": 5851,
      "酌": 5852,
      "配": 5853,
      "酒": 5854,
      "酔": 5855,
      "酗": 5856,
      "酚": 5857,
      "酝": 5858,
      "酣": 5859,
      "酥": 5860,
      "酪": 5861,
      "酬": 5862,
      "酮": 5863,
      "酯": 5864,
      "酰": 5865,
      "酱": 5866,
      "酵": 5867,
      "酶": 5868,
      "酷": 5869,
      "酸": 5870,
      "酿": 5871,
      "醇": 5872,
      "醉": 5873,
      "醋": 5874,
      "醒": 5875,
      "醚": 5876,
      "醛": 5877,
      "醜": 5878,
      "醪": 5879,
      "醫": 5880,
      "醬": 5881,
      "醴": 5882,
      "醺": 5883,
      "釀": 5884,
      "釆": 5885,
      "采": 5886,
      "釉": 5887,
      "释": 5888,
      "釋": 5889,
      "里": 5890,
      "重": 5891,
      "野": 5892,
      "量": 5893,
      "金": 5894,
      "釜": 5895,
      "釣": 5896,
      "釤": 5897,
      "鈜": 5898,
      "鈡": 5899,
      "鈦": 5900,
      "鈺": 5901,
      "鉄": 5902,
      "鉴": 5903,
      "銀": 5904,
      "銅": 5905,
      "銮": 5906,
      "銱": 5907,
      "鋆": 5908,
      "鋤": 5909,
      "錢": 5910,
      "錯": 5911,
      "錶": 5912,
      "鍾": 5913,
      "鎬": 5914,
      "鏡": 5915,
      "鐘": 5916,
      "鐵": 5917,
      "鑫": 5918,
      "鑼": 5919,
      "钅": 5920,
      "钇": 5921,
      "针": 5922,
      "钉": 5923,
      "钊": 5924,
      "钋": 5925,
      "钒": 5926,
      "钓": 5927,
      "钗": 5928,
      "钙": 5929,
      "钛": 5930,
      "钝": 5931,
      "钞": 5932,
      "钟": 5933,
      "钠": 5934,
      "钡": 5935,
      "钢": 5936,
      "钤": 5937,
      "钥": 5938,
      "钦": 5939,
      "钧": 5940,
      "钨": 5941,
      "钩": 5942,
      "钭": 5943,
      "钮": 5944,
      "钰": 5945,
      "钱": 5946,
      "钳": 5947,
      "钴": 5948,
      "钵": 5949,
      "钺": 5950,
      "钻": 5951,
      "钾": 5952,
      "钿": 5953,
      "铁": 5954,
      "铂": 5955,
      "铃": 5956,
      "铅": 5957,
      "铆": 5958,
      "铉": 5959,
      "铍": 5960,
      "铎": 5961,
      "铐": 5962,
      "铖": 5963,
      "铛": 5964,
      "铜": 5965,
      "铝": 5966,
      "铞": 5967,
      "铠": 5968,
      "铡": 5969,
      "铥": 5970,
      "铨": 5971,
      "铪": 5972,
      "铭": 5973,
      "铮": 5974,
      "铯": 5975,
      "铰": 5976,
      "铲": 5977,
      "银": 5978,
      "铸": 5979,
      "铺": 5980,
      "链": 5981,
      "铿": 5982,
      "销": 5983,
      "锁": 5984,
      "锂": 5985,
      "锄": 5986,
      "锅": 5987,
      "锇": 5988,
      "锈": 5989,
      "锉": 5990,
      "锋": 5991,
      "锌": 5992,
      "锎": 5993,
      "锐": 5994,
      "锕": 5995,
      "错": 5996,
      "锚": 5997,
      "锝": 5998,
      "锟": 5999,
      "锡": 6000,
      "锣": 6001,
      "锤": 6002,
      "锥": 6003,
      "锦": 6004,
      "锭": 6005,
      "键": 6006,
      "锯": 6007,
      "锰": 6008,
      "锴": 6009,
      "锵": 6010,
      "锷": 6011,
      "锻": 6012,
      "镁": 6013,
      "镂": 6014,
      "镇": 6015,
      "镍": 6016,
      "镐": 6017,
      "镕": 6018,
      "镖": 6019,
      "镜": 6020,
      "镝": 6021,
      "镤": 6022,
      "镥": 6023,
      "镭": 6024,
      "镮": 6025,
      "镱": 6026,
      "镲": 6027,
      "镳": 6028,
      "镶": 6029,
      "長": 6030,
      "长": 6031,
      "門": 6032,
      "閃": 6033,
      "開": 6034,
      "間": 6035,
      "閨": 6036,
      "閻": 6037,
      "闆": 6038,
      "關": 6039,
      "门": 6040,
      "闪": 6041,
      "闫": 6042,
      "闭": 6043,
      "问": 6044,
      "闯": 6045,
      "闰": 6046,
      "闲": 6047,
      "闳": 6048,
      "间": 6049,
      "闵": 6050,
      "闷": 6051,
      "闸": 6052,
      "闹": 6053,
      "闺": 6054,
      "闻": 6055,
      "闽": 6056,
      "闾": 6057,
      "阁": 6058,
      "阂": 6059,
      "阅": 6060,
      "阆": 6061,
      "阈": 6062,
      "阉": 6063,
      "阎": 6064,
      "阐": 6065,
      "阑": 6066,
      "阔": 6067,
      "阖": 6068,
      "阙": 6069,
      "阚": 6070,
      "阜": 6071,
      "队": 6072,
      "阡": 6073,
      "阪": 6074,
      "阮": 6075,
      "阱": 6076,
      "防": 6077,
      "阳": 6078,
      "阴": 6079,
      "阵": 6080,
      "阶": 6081,
      "阻": 6082,
      "阿": 6083,
      "陀": 6084,
      "陂": 6085,
      "附": 6086,
      "际": 6087,
      "陆": 6088,
      "陈": 6089,
      "陋": 6090,
      "陌": 6091,
      "降": 6092,
      "限": 6093,
      "陕": 6094,
      "陛": 6095,
      "陡": 6096,
      "院": 6097,
      "除": 6098,
      "陨": 6099,
      "险": 6100,
      "陪": 6101,
      "陲": 6102,
      "陳": 6103,
      "陵": 6104,
      "陶": 6105,
      "陷": 6106,
      "陸": 6107,
      "陽": 6108,
      "隅": 6109,
      "隆": 6110,
      "隊": 6111,
      "隋": 6112,
      "隍": 6113,
      "随": 6114,
      "隐": 6115,
      "隔": 6116,
      "隘": 6117,
      "隙": 6118,
      "際": 6119,
      "障": 6120,
      "隧": 6121,
      "隨": 6122,
      "險": 6123,
      "隶": 6124,
      "隻": 6125,
      "隼": 6126,
      "隽": 6127,
      "难": 6128,
      "雀": 6129,
      "雁": 6130,
      "雄": 6131,
      "雅": 6132,
      "集": 6133,
      "雇": 6134,
      "雉": 6135,
      "雌": 6136,
      "雍": 6137,
      "雎": 6138,
      "雏": 6139,
      "雒": 6140,
      "雕": 6141,
      "雙": 6142,
      "雞": 6143,
      "離": 6144,
      "難": 6145,
      "雨": 6146,
      "雪": 6147,
      "雯": 6148,
      "雲": 6149,
      "雳": 6150,
      "零": 6151,
      "雷": 6152,
      "雹": 6153,
      "電": 6154,
      "雾": 6155,
      "需": 6156,
      "霁": 6157,
      "霂": 6158,
      "霄": 6159,
      "霆": 6160,
      "震": 6161,
      "霉": 6162,
      "霍": 6163,
      "霎": 6164,
      "霏": 6165,
      "霑": 6166,
      "霓": 6167,
      "霖": 6168,
      "霜": 6169,
      "霞": 6170,
      "霭": 6171,
      "露": 6172,
      "霸": 6173,
      "霹": 6174,
      "霾": 6175,
      "靂": 6176,
      "靈": 6177,
      "靌": 6178,
      "青": 6179,
      "靓": 6180,
      "靖": 6181,
      "静": 6182,
      "靚": 6183,
      "靛": 6184,
      "靜": 6185,
      "非": 6186,
      "靠": 6187,
      "靡": 6188,
      "面": 6189,
      "靥": 6190,
      "革": 6191,
      "靳": 6192,
      "靴": 6193,
      "靶": 6194,
      "鞋": 6195,
      "鞍": 6196,
      "鞑": 6197,
      "鞘": 6198,
      "鞠": 6199,
      "鞥": 6200,
      "鞭": 6201,
      "韓": 6202,
      "韡": 6203,
      "韦": 6204,
      "韧": 6205,
      "韩": 6206,
      "韫": 6207,
      "韬": 6208,
      "韭": 6209,
      "音": 6210,
      "韵": 6211,
      "韶": 6212,
      "響": 6213,
      "頁": 6214,
      "頂": 6215,
      "須": 6216,
      "頓": 6217,
      "頔": 6218,
      "領": 6219,
      "頭": 6220,
      "頻": 6221,
      "顆": 6222,
      "題": 6223,
      "額": 6224,
      "顏": 6225,
      "顒": 6226,
      "顔": 6227,
      "願": 6228,
      "類": 6229,
      "顯": 6230,
      "页": 6231,
      "顶": 6232,
      "顷": 6233,
      "项": 6234,
      "顺": 6235,
      "须": 6236,
      "顼": 6237,
      "顽": 6238,
      "顾": 6239,
      "顿": 6240,
      "颁": 6241,
      "颂": 6242,
      "预": 6243,
      "颅": 6244,
      "领": 6245,
      "颇": 6246,
      "颈": 6247,
      "颊": 6248,
      "颌": 6249,
      "颍": 6250,
      "颐": 6251,
      "频": 6252,
      "颓": 6253,
      "颖": 6254,
      "颗": 6255,
      "题": 6256,
      "颚": 6257,
      "颛": 6258,
      "颜": 6259,
      "额": 6260,
      "颞": 6261,
      "颠": 6262,
      "颢": 6263,
      "颤": 6264,
      "風": 6265,
      "飂": 6266,
      "风": 6267,
      "飒": 6268,
      "飓": 6269,
      "飘": 6270,
      "飙": 6271,
      "飚": 6272,
      "飛": 6273,
      "飝": 6274,
      "飞": 6275,
      "食": 6276,
      "飯": 6277,
      "飽": 6278,
      "餃": 6279,
      "養": 6280,
      "餐": 6281,
      "餓": 6282,
      "餮": 6283,
      "饕": 6284,
      "饞": 6285,
      "饥": 6286,
      "饨": 6287,
      "饪": 6288,
      "饬": 6289,
      "饭": 6290,
      "饮": 6291,
      "饯": 6292,
      "饰": 6293,
      "饱": 6294,
      "饲": 6295,
      "饴": 6296,
      "饵": 6297,
      "饶": 6298,
      "饺": 6299,
      "饼": 6300,
      "饽": 6301,
      "饿": 6302,
      "馁": 6303,
      "馄": 6304,
      "馅": 6305,
      "馆": 6306,
      "馈": 6307,
      "馊": 6308,
      "馋": 6309,
      "馍": 6310,
      "馏": 6311,
      "馒": 6312,
      "馔": 6313,
      "馕": 6314,
      "首": 6315,
      "馗": 6316,
      "香": 6317,
      "馥": 6318,
      "馨": 6319,
      "馬": 6320,
      "馳": 6321,
      "駕": 6322,
      "駟": 6323,
      "駡": 6324,
      "騃": 6325,
      "騎": 6326,
      "騙": 6327,
      "騮": 6328,
      "騰": 6329,
      "騷": 6330,
      "驍": 6331,
      "驫": 6332,
      "马": 6333,
      "驭": 6334,
      "驮": 6335,
      "驯": 6336,
      "驰": 6337,
      "驱": 6338,
      "驳": 6339,
      "驴": 6340,
      "驶": 6341,
      "驷": 6342,
      "驸": 6343,
      "驹": 6344,
      "驻": 6345,
      "驼": 6346,
      "驾": 6347,
      "驿": 6348,
      "骀": 6349,
      "骁": 6350,
      "骂": 6351,
      "骄": 6352,
      "骅": 6353,
      "骆": 6354,
      "骇": 6355,
      "骊": 6356,
      "骋": 6357,
      "验": 6358,
      "骏": 6359,
      "骐": 6360,
      "骑": 6361,
      "骗": 6362,
      "骚": 6363,
      "骛": 6364,
      "骞": 6365,
      "骟": 6366,
      "骡": 6367,
      "骤": 6368,
      "骥": 6369,
      "骨": 6370,
      "骰": 6371,
      "骷": 6372,
      "骸": 6373,
      "骼": 6374,
      "髀": 6375,
      "髂": 6376,
      "髅": 6377,
      "髓": 6378,
      "體": 6379,
      "高": 6380,
      "髙": 6381,
      "髦": 6382,
      "髮": 6383,
      "髯": 6384,
      "髻": 6385,
      "鬆": 6386,
      "鬍": 6387,
      "鬓": 6388,
      "鬟": 6389,
      "鬥": 6390,
      "鬧": 6391,
      "鬱": 6392,
      "鬼": 6393,
      "魁": 6394,
      "魂": 6395,
      "魄": 6396,
      "魅": 6397,
      "魉": 6398,
      "魍": 6399,
      "魏": 6400,
      "魑": 6401,
      "魔": 6402,
      "魚": 6403,
      "鮮": 6404,
      "鱼": 6405,
      "鱿": 6406,
      "鲁": 6407,
      "鲅": 6408,
      "鲍": 6409,
      "鲔": 6410,
      "鲛": 6411,
      "鲜": 6412,
      "鲤": 6413,
      "鲨": 6414,
      "鲫": 6415,
      "鲶": 6416,
      "鲸": 6417,
      "鳄": 6418,
      "鳅": 6419,
      "鳌": 6420,
      "鳏": 6421,
      "鳖": 6422,
      "鳗": 6423,
      "鳜": 6424,
      "鳝": 6425,
      "鳞": 6426,
      "鳥": 6427,
      "鳮": 6428,
      "鳳": 6429,
      "鴨": 6430,
      "鴫": 6431,
      "鷄": 6432,
      "鸟": 6433,
      "鸠": 6434,
      "鸡": 6435,
      "鸣": 6436,
      "鸥": 6437,
      "鸦": 6438,
      "鸨": 6439,
      "鸭": 6440,
      "鸯": 6441,
      "鸲": 6442,
      "鸳": 6443,
      "鸵": 6444,
      "鸽": 6445,
      "鸿": 6446,
      "鹂": 6447,
      "鹃": 6448,
      "鹄": 6449,
      "鹅": 6450,
      "鹈": 6451,
      "鹉": 6452,
      "鹊": 6453,
      "鹌": 6454,
      "鹏": 6455,
      "鹑": 6456,
      "鹕": 6457,
      "鹜": 6458,
      "鹞": 6459,
      "鹤": 6460,
      "鹦": 6461,
      "鹭": 6462,
      "鹰": 6463,
      "鹾": 6464,
      "鹿": 6465,
      "麋": 6466,
      "麒": 6467,
      "麓": 6468,
      "麗": 6469,
      "麝": 6470,
      "麟": 6471,
      "麥": 6472,
      "麦": 6473,
      "麵": 6474,
      "麻": 6475,
      "麼": 6476,
      "麽": 6477,
      "黃": 6478,
      "黄": 6479,
      "黆": 6480,
      "黍": 6481,
      "黎": 6482,
      "黏": 6483,
      "黐": 6484,
      "黑": 6485,
      "黒": 6486,
      "黔": 6487,
      "默": 6488,
      "黙": 6489,
      "黛": 6490,
      "黜": 6491,
      "黝": 6492,
      "點": 6493,
      "黨": 6494,
      "黯": 6495,
      "鼍": 6496,
      "鼎": 6497,
      "鼐": 6498,
      "鼓": 6499,
      "鼠": 6500,
      "鼡": 6501,
      "鼬": 6502,
      "鼻": 6503,
      "齁": 6504,
      "齐": 6505,
      "齿": 6506,
      "龄": 6507,
      "龅": 6508,
      "龈": 6509,
      "龊": 6510,
      "龌": 6511,
      "龍": 6512,
      "龑": 6513,
      "龔": 6514,
      "龖": 6515,
      "龘": 6516,
      "龙": 6517,
      "龚": 6518,
      "龟": 6519,
      "ꈊ": 6520,
      "꒰": 6521,
      "꒱": 6522,
      "가": 6523,
      "강": 6524,
      "같": 6525,
      "개": 6526,
      "거": 6527,
      "것": 6528,
      "게": 6529,
      "경": 6530,
      "고": 6531,
      "구": 6532,
      "국": 6533,
      "군": 6534,
      "그": 6535,
      "금": 6536,
      "기": 6537,
      "김": 6538,
      "까": 6539,
      "꾸": 6540,
      "끼": 6541,
      "나": 6542,
      "난": 6543,
      "날": 6544,
      "남": 6545,
      "내": 6546,
      "냐": 6547,
      "너": 6548,
      "넌": 6549,
      "넝": 6550,
      "네": 6551,
      "넵": 6552,
      "녕": 6553,
      "노": 6554,
      "누": 6555,
      "는": 6556,
      "늘": 6557,
      "니": 6558,
      "닌": 6559,
      "님": 6560,
      "다": 6561,
      "달": 6562,
      "닭": 6563,
      "당": 6564,
      "대": 6565,
      "데": 6566,
      "도": 6567,
      "동": 6568,
      "돼": 6569,
      "됁": 6570,
      "됂": 6571,
      "되": 6572,
      "될": 6573,
      "두": 6574,
      "듀": 6575,
      "들": 6576,
      "때": 6577,
      "땡": 6578,
      "떻": 6579,
      "똡": 6580,
      "뜻": 6581,
      "라": 6582,
      "란": 6583,
      "랄": 6584,
      "람": 6585,
      "랑": 6586,
      "래": 6587,
      "러": 6588,
      "런": 6589,
      "럴": 6590,
      "럼": 6591,
      "럽": 6592,
      "려": 6593,
      "렸": 6594,
      "령": 6595,
      "로": 6596,
      "롤": 6597,
      "룯": 6598,
      "르": 6599,
      "른": 6600,
      "를": 6601,
      "리": 6602,
      "마": 6603,
      "많": 6604,
      "말": 6605,
      "맙": 6606,
      "맞": 6607,
      "머": 6608,
      "먹": 6609,
      "멍": 6610,
      "면": 6611,
      "명": 6612,
      "몇": 6613,
      "모": 6614,
      "몰": 6615,
      "못": 6616,
      "무": 6617,
      "문": 6618,
      "뭐": 6619,
      "뭘": 6620,
      "미": 6621,
      "바": 6622,
      "박": 6623,
      "받": 6624,
      "발": 6625,
      "밥": 6626,
      "방": 6627,
      "배": 6628,
      "뱐": 6629,
      "법": 6630,
      "병": 6631,
      "보": 6632,
      "복": 6633,
      "봐": 6634,
      "부": 6635,
      "뷰": 6636,
      "뿔": 6637,
      "쁘": 6638,
      "쁜": 6639,
      "사": 6640,
      "살": 6641,
      "상": 6642,
      "새": 6643,
      "색": 6644,
      "생": 6645,
      "서": 6646,
      "세": 6647,
      "셔": 6648,
      "소": 6649,
      "솟": 6650,
      "수": 6651,
      "술": 6652,
      "슈": 6653,
      "스": 6654,
      "슥": 6655,
      "슨": 6656,
      "습": 6657,
      "신": 6658,
      "십": 6659,
      "싶": 6660,
      "써": 6661,
      "씨": 6662,
      "아": 6663,
      "안": 6664,
      "알": 6665,
      "았": 6666,
      "애": 6667,
      "야": 6668,
      "얘": 6669,
      "어": 6670,
      "얼": 6671,
      "없": 6672,
      "엇": 6673,
      "었": 6674,
      "엉": 6675,
      "에": 6676,
      "여": 6677,
      "연": 6678,
      "열": 6679,
      "예": 6680,
      "오": 6681,
      "왜": 6682,
      "요": 6683,
      "우": 6684,
      "운": 6685,
      "울": 6686,
      "웃": 6687,
      "워": 6688,
      "으": 6689,
      "은": 6690,
      "을": 6691,
      "응": 6692,
      "의": 6693,
      "이": 6694,
      "인": 6695,
      "일": 6696,
      "있": 6697,
      "자": 6698,
      "작": 6699,
      "잔": 6700,
      "잘": 6701,
      "장": 6702,
      "쟬": 6703,
      "저": 6704,
      "절": 6705,
      "정": 6706,
      "제": 6707,
      "젠": 6708,
      "졸": 6709,
      "좀": 6710,
      "종": 6711,
      "좋": 6712,
      "주": 6713,
      "죽": 6714,
      "준": 6715,
      "지": 6716,
      "진": 6717,
      "집": 6718,
      "짜": 6719,
      "짤": 6720,
      "찾": 6721,
      "처": 6722,
      "천": 6723,
      "청": 6724,
      "추": 6725,
      "춤": 6726,
      "치": 6727,
      "친": 6728,
      "켤": 6729,
      "코": 6730,
      "큐": 6731,
      "탁": 6732,
      "터": 6733,
      "통": 6734,
      "툧": 6735,
      "트": 6736,
      "틀": 6737,
      "팅": 6738,
      "파": 6739,
      "팔": 6740,
      "팧": 6741,
      "퍼": 6742,
      "포": 6743,
      "퓨": 6744,
      "하": 6745,
      "학": 6746,
      "한": 6747,
      "합": 6748,
      "해": 6749,
      "했": 6750,
      "허": 6751,
      "헐": 6752,
      "헤": 6753,
      "현": 6754,
      "호": 6755,
      "혼": 6756,
      "화": 6757,
      "황": 6758,
      "흏": 6759,
      "히": 6760,
      "힘": 6761,
      "": 6762,
      "不": 6763,
      "量": 6764,
      "崙": 6765,
      "︵": 6766,
      "︶": 6767,
      "︿": 6768,
      "﹁": 6769,
      "﹃": 6770,
      "﹉": 6771,
      "﹋": 6772,
      "﹌": 6773,
      "﹏": 6774,
      "﹢": 6775,
      "﹣": 6776,
      "﹦": 6777,
      "﹫": 6778,
      "！": 6779,
      "＂": 6780,
      "＃": 6781,
      "＄": 6782,
      "％": 6783,
      "＇": 6784,
      "（": 6785,
      "）": 6786,
      "＊": 6787,
      "＋": 6788,
      "，": 6789,
      "－": 6790,
      "／": 6791,
      "０": 6792,
      "１": 6793,
      "２": 6794,
      "３": 6795,
      "４": 6796,
      "５": 6797,
      "６": 6798,
      "７": 6799,
      "８": 6800,
      "９": 6801,
      "：": 6802,
      "；": 6803,
      "＜": 6804,
      "＝": 6805,
      "＞": 6806,
      "？": 6807,
      "＠": 6808,
      "Ｈ": 6809,
      "Ｏ": 6810,
      "Ｑ": 6811,
      "Ｔ": 6812,
      "Ｕ": 6813,
      "［": 6814,
      "＼": 6815,
      "］": 6816,
      "＾": 6817,
      "＿": 6818,
      "｀": 6819,
      "ｂ": 6820,
      "ｃ": 6821,
      "ｆ": 6822,
      "ｇ": 6823,
      "ｈ": 6824,
      "ｔ": 6825,
      "ｖ": 6826,
      "ｙ": 6827,
      "｜": 6828,
      "～": 6829,
      "｡": 6830,
      "｢": 6831,
      "｣": 6832,
      "･": 6833,
      "ｪ": 6834,
      "ｰ": 6835,
      "ﾉ": 6836,
      "ﾟ": 6837,
      "￡": 6838,
      "￣": 6839,
      "￥": 6840,
      "�": 6841,
      "什么": 6842,
      "。。": 6843,
      "怎么": 6844,
      "。=": 6845,
      "=。=": 6846,
      "你是": 6847,
      "知道": 6848,
      "我是": 6849,
      "不是": 6850,
      "喜欢": 6851,
      "！！": 6852,
      "**": 6853,
      "..": 6854,
      "主人": 6855,
      "小通": 6856,
      "就是": 6857,
      "不要": 6858,
      "呵呵": 6859,
      "你的": 6860,
      "一个": 6861,
      "……": 6862,
      "我的": 6863,
      "没有": 6864,
      "还是": 6865,
      "哈哈": 6866,
      "爱你": 6867,
      "我不": 6868,
      "。。。": 6869,
      "给我": 6870,
      "你说": 6871,
      "你妹": 6872,
      "是谁": 6873,
      "这么": 6874,
      "那你": 6875,
      "当然": 6876,
      "****": 6877,
      "笑话": 6878,
      "人家": 6879,
      "不好": 6880,
      "可以": 6881,
      "~~": 6882,
      "不会": 6883,
      "我也": 6884,
      "自己": 6885,
      "错了": 6886,
      "爱的": 6887,
      "为什么": 6888,
      "鸡鸡": 6889,
      "因为": 6890,
      "怎么办": 6891,
      "朋友": 6892,
      "我要": 6893,
      "给你": 6894,
      "你不": 6895,
      "你了": 6896,
      "啦啦": 6897,
      "我想": 6898,
      "你有": 6899,
      "我们": 6900,
      "是你": 6901,
      "你怎么": 6902,
      "你才": 6903,
      "睡觉": 6904,
      "你好": 6905,
      "时候": 6906,
      "真的": 6907,
      "这个": 6908,
      "多少": 6909,
      "傻逼": 6910,
      "我说": 6911,
      "可爱": 6912,
      "干嘛": 6913,
      "告诉": 6914,
      "是什么": 6915,
      "我就": 6916,
      "好吧": 6917,
      "呜呜": 6918,
      "！！！": 6919,
      "!!": 6920,
      "好的": 6921,
      "无聊": 6922,
      "你会": 6923,
      "不知道": 6924,
      "认识": 6925,
      "回复": 6926,
      "意思": 6927,
      "那么": 6928,
      "现在": 6929,
      "讨厌": 6930,
      "开心": 6931,
      "都是": 6932,
      "晚安": 6933,
      "今天": 6934,
      "么么": 6935,
      "不能": 6936,
      "...": 6937,
      "啊啊": 6938,
      "你个": 6939,
      "这样": 6940,
      "你猜": 6941,
      "我在": 6942,
      "运势": 6943,
      "了你": 6944,
      "一起": 6945,
      "是我": 6946,
      "聊天": 6947,
      "我错了": 6948,
      "出来": 6949,
      "好吃": 6950,
      "。。。。": 6951,
      "你还": 6952,
      "觉得": 6953,
      "讲个": 6954,
      "******": 6955,
      "我会": 6956,
      "一下": 6957,
      "....": 6958,
      "那个": 6959,
      "爸爸": 6960,
      "你也": 6961,
      "老公": 6962,
      "明天": 6963,
      "的人": 6964,
      "孩子": 6965,
      "你就": 6966,
      "不到": 6967,
      "我喜欢": 6968,
      "你妈": 6969,
      "哪里": 6970,
      "回家": 6971,
      "死了": 6972,
      "我爱你": 6973,
      "聪明": 6974,
      "嗯嗯": 6975,
      "美女": 6976,
      "一直": 6977,
      "你吃": 6978,
      "世界": 6979,
      "是个": 6980,
      "宝贝": 6981,
      "老婆": 6982,
      "大爷": 6983,
      "你知道": 6984,
      "是的": 6985,
      "和你": 6986,
      "你要": 6987,
      "你喜欢": 6988,
      "不理": 6989,
      "小黄": 6990,
      "必须": 6991,
      "回答": 6992,
      "怎么样": 6993,
      "好好": 6994,
      "问题": 6995,
      "我就是": 6996,
      "嘿嘿": 6997,
      "笨蛋": 6998,
      "不起": 6999,
      "亲爱的": 7000,
      "ou": 7001,
      "那就": 7002,
      "谢谢": 7003,
      "你不是": 7004,
      "他们": 7005,
      "了吗": 7006,
      "男人": 7007,
      "想你": 7008,
      "说话": 7009,
      "爱我": 7010,
      "女的": 7011,
      "͡͡": 7012,
      "如何": 7013,
      "让我": 7014,
      "来了": 7015,
      "，，": 7016,
      "讲个笑话": 7017,
      "男的": 7018,
      "一样": 7019,
      "没事": 7020,
      "你在": 7021,
      "我好": 7022,
      "我最": 7023,
      "妈妈": 7024,
      "关系": 7025,
      "是啊": 7026,
      "是不是": 7027,
      "考试": 7028,
      "然后": 7029,
      "你想": 7030,
      "大学": 7031,
      "好了": 7032,
      "当然是": 7033,
      "木有": 7034,
      "我有": 7035,
      "手机": 7036,
      "那是": 7037,
      "吃饭": 7038,
      "还有": 7039,
      "我很": 7040,
      "也不": 7041,
      "母鸡": 7042,
      "可是": 7043,
      "一只": 7044,
      "生气": 7045,
      "跟我": 7046,
      "你真": 7047,
      "一定": 7048,
      "都不": 7049,
      "老师": 7050,
      "si": 7051,
      "应该": 7052,
      "我还": 7053,
      "喜欢你": 7054,
      "''": 7055,
      "漂亮": 7056,
      "我去": 7057,
      "无敌": 7058,
      "笨鸡": 7059,
      "可能": 7060,
      "你们": 7061,
      "吃鸡": 7062,
      "把你": 7063,
      "女朋友": 7064,
      "跟你": 7065,
      "帅哥": 7066,
      "伦家": 7067,
      "姐姐": 7068,
      "我了": 7069,
      "媳妇": 7070,
      "呵呵呵呵": 7071,
      "00": 7072,
      "儿子": 7073,
      ",,": 7074,
      "you": 7075,
      "去了": 7076,
      "特别": 7077,
      "黄鸡": 7078,
      "～～": 7079,
      "我知道": 7080,
      "an": 7081,
      "天天": 7082,
      "一点": 7083,
      "我爱": 7084,
      "别人": 7085,
      "公鸡": 7086,
      "on": 7087,
      "叫我": 7088,
      "起来": 7089,
      "re": 7090,
      "哪个": 7091,
      "女神": 7092,
      "啦啦啦": 7093,
      "的小": 7094,
      "对不起": 7095,
      "死鸡": 7096,
      "其实": 7097,
      "心情": 7098,
      "我怎么": 7099,
      "你又": 7100,
      "的好": 7101,
      "in": 7102,
      "出去": 7103,
      "好啊": 7104,
      "的鸡": 7105,
      "了吧": 7106,
      "还不": 7107,
      "我不是": 7108,
      "肯定": 7109,
      "这是": 7110,
      "？？": 7111,
      "让你": 7112,
      "中国": 7113,
      "大家": 7114,
      "我没": 7115,
      "问你": 7116,
      "99": 7117,
      "子座": 7118,
      "超级": 7119,
      "告诉你": 7120,
      "回来": 7121,
      "尼玛": 7122,
      "多了": 7123,
      "东西": 7124,
      "屌丝": 7125,
      "吃了": 7126,
      "不想": 7127,
      "如果": 7128,
      "你才是": 7129,
      "有什么": 7130,
      "永远": 7131,
      "你就是": 7132,
      "什么时候": 7133,
      "休息": 7134,
      "看看": 7135,
      "全家": 7136,
      "你去": 7137,
      "到底": 7138,
      "电话": 7139,
      "那我": 7140,
      "宝宝": 7141,
      "不懂": 7142,
      "说的": 7143,
      "我只": 7144,
      "发现": 7145,
      "以后": 7146,
      "你能": 7147,
      "找不到": 7148,
      "可爱的": 7149,
      "哥哥": 7150,
      "两个": 7151,
      "几个": 7152,
      "智商": 7153,
      "运势如何": 7154,
      "麻麻": 7155,
      "(╯": 7156,
      "男朋友": 7157,
      "名字": 7158,
      "╰)": 7159,
      "不过": 7160,
      "〜〜": 7161,
      "机器": 7162,
      "男生": 7163,
      "不就是": 7164,
      "??": 7165,
      "怎么了": 7166,
      "时间": 7167,
      "大人": 7168,
      "介绍": 7169,
      "一个人": 7170,
      "必须的": 7171,
      "睡了": 7172,
      "最爱": 7173,
      "肿么": 7174,
      "心里": 7175,
      "万岁": 7176,
      "学习": 7177,
      "难过": 7178,
      "晚上": 7179,
      "陪你": 7180,
      "一般": 7181,
      "计算": 7182,
      "一天": 7183,
      "女人": 7184,
      "妹纸": 7185,
      "不行": 7186,
      "是多少": 7187,
      "sim": 7188,
      "死你": 7189,
      "的时候": 7190,
      "LZ": 7191,
      "告诉我": 7192,
      "你这": 7193,
      "说了": 7194,
      "好多": 7195,
      "不着": 7196,
      "害羞": 7197,
      "嘻嘻": 7198,
      "你大爷": 7199,
      "结婚": 7200,
      "第一": 7201,
      "帮我": 7202,
      "就不": 7203,
      "哈哈哈哈": 7204,
      "摩羯": 7205,
      "你都": 7206,
      "加油": 7207,
      "在一起": 7208,
      "同学": 7209,
      "所以": 7210,
      "妹子": 7211,
      "吃什么": 7212,
      "说你": 7213,
      "已经": 7214,
      "不对": 7215,
      "神马": 7216,
      "欺负": 7217,
      "表情": 7218,
      "你最": 7219,
      "射手": 7220,
      "你看": 7221,
      "无语": 7222,
      "我都": 7223,
      "不了": 7224,
      "工作": 7225,
      "me": 7226,
      "快乐": 7227,
      "相信": 7228,
      "叫什么": 7229,
      "ha": 7230,
      "he": 7231,
      "鸡蛋": 7232,
      "怎样": 7233,
      "卖萌": 7234,
      "55": 7235,
      "宇宙": 7236,
      "的事": 7237,
      "你是不是": 7238,
      "的是": 7239,
      "对啊": 7240,
      "你觉得": 7241,
      "傻鸡": 7242,
      "故事": 7243,
      "~~~": 7244,
      "的小通": 7245,
      "厉害": 7246,
      "你太": 7247,
      "看不": 7248,
      "幸福": 7249,
      "调戏": 7250,
      "饿了": 7251,
      "计算鸡": 7252,
      "女王": 7253,
      "但是": 7254,
      "摩羯座": 7255,
      "来的": 7256,
      "有人": 7257,
      "二货": 7258,
      "你给我": 7259,
      "只有": 7260,
      "学校": 7261,
      "妹妹": 7262,
      "抱抱": 7263,
      "你认识": 7264,
      "每天": 7265,
      "哈哈哈": 7266,
      "被你": 7267,
      "肯德": 7268,
      "？！": 7269,
      "11": 7270,
      "感觉": 7271,
      "搞基": 7272,
      "过来": 7273,
      "好不好": 7274,
      "射手座": 7275,
      "不理我": 7276,
      "͡͡͡͡": 7277,
      "赶紧": 7278,
      "找到": 7279,
      "记得": 7280,
      "都知道": 7281,
      "了一": 7282,
      "陪我": 7283,
      "我也是": 7284,
      "lo": 7285,
      "中的": 7286,
      "起床": 7287,
      "干什么": 7288,
      "等你": 7289,
      "还没": 7290,
      "巨蟹": 7291,
      "......": 7292,
      "睡不着": 7293,
      "肯德基": 7294,
      "￣︶": 7295,
      "他是": 7296,
      "￣︶￣": 7297,
      "你丫": 7298,
      "不敢": 7299,
      "的话": 7300,
      "努力": 7301,
      "不喜欢": 7302,
      "在你": 7303,
      "电视": 7304,
      "公的": 7305,
      "我猜": 7306,
      "对象": 7307,
      "爱情": 7308,
      "＼（": 7309,
      "(^": 7310,
      "＼（￣︶￣": 7311,
      "楼主": 7312,
      "）／": 7313,
      "我是计算鸡": 7314,
      "＼（￣︶￣）／": 7315,
      "你很": 7316,
      "看到": 7317,
      "需要": 7318,
      "大的": 7319,
      "安慰": 7320,
      "美丽": 7321,
      "你妹啊": 7322,
      "20": 7323,
      "天蝎": 7324,
      "才是": 7325,
      "辈子": 7326,
      "星座": 7327,
      "oo": 7328,
      "和我": 7329,
      "不得": 7330,
      "着你": 7331,
      "is": 7332,
      "伤心": 7333,
      "了么": 7334,
      "基友": 7335,
      "有我": 7336,
      "找你": 7337,
      "le": 7338,
      "开始": 7339,
      "生气了": 7340,
      "说什么": 7341,
      "比你": 7342,
      "这么快": 7343,
      "^)": 7344,
      "你全家": 7345,
      "88": 7346,
      "很多": 7347,
      "听听": 7348,
      "好看": 7349,
      "不许": 7350,
      "在哪": 7351,
      "我妹": 7352,
      "不错": 7353,
      "洗澡": 7354,
      "呜呜呜": 7355,
      "自动": 7356,
      "啊啊啊啊": 7357,
      "原谅": 7358,
      "你爱": 7359,
      "她们": 7360,
      "正在": 7361,
      "也是": 7362,
      "屁股": 7363,
      "。，": 7364,
      "叽叽": 7365,
      "快点": 7366,
      "好玩": 7367,
      "有一": 7368,
      "巨蟹座": 7369,
      "我是你": 7370,
      "电脑": 7371,
      "你家": 7372,
      "贱鸡": 7373,
      "!!!": 7374,
      "放假": 7375,
      "下蛋": 7376,
      "最近": 7377,
      "水瓶": 7378,
      "以为": 7379,
      "来吧": 7380,
      "蘑菇": 7381,
      "我不会": 7382,
      "为啥": 7383,
      "粑粑": 7384,
      "女生": 7385,
      "唧唧": 7386,
      "(>": 7387,
      "难道": 7388,
      "乖乖": 7389,
      "ve": 7390,
      "世界上": 7391,
      "来个": 7392,
      "累了": 7393,
      "多大": 7394,
      "你可以": 7395,
      "吃我": 7396,
      "！！！！": 7397,
      "你自己": 7398,
      "说个": 7399,
      "ba": 7400,
      "只是": 7401,
      "过年": 7402,
      "垃圾": 7403,
      "在我": 7404,
      "好人": 7405,
      "大美女": 7406,
      "还要": 7407,
      "主银": 7408,
      "不理你了": 7409,
      "去死": 7410,
      "你懂": 7411,
      "双子座": 7412,
      "寂寞": 7413,
      "人人": 7414,
      "菊花": 7415,
      "…………": 7416,
      "哪有": 7417,
      "不用": 7418,
      "么么哒": 7419,
      "<)": 7420,
      "原来": 7421,
      "继续": 7422,
      "吃的": 7423,
      "才能": 7424,
      "ly": 7425,
      "st": 7426,
      "我叫": 7427,
      "有点": 7428,
      "有个": 7429,
      "哎呀": 7430,
      "日本": 7431,
      "你啊": 7432,
      "好无聊": 7433,
      "你为什么": 7434,
      "地方": 7435,
      "微信": 7436,
      "你妹的": 7437,
      "一会": 7438,
      "我吧": 7439,
      "你没": 7440,
      "不然": 7441,
      "主任": 7442,
      "母的": 7443,
      "你怎么知道": 7444,
      "办法": 7445,
      "找个": 7446,
      "贱人": 7447,
      "他的": 7448,
      "天蝎座": 7449,
      "(*": 7450,
      "上了": 7451,
      "只要": 7452,
      "那么多": 7453,
      "问我": 7454,
      "ing": 7455,
      "把我": 7456,
      "睡觉了": 7457,
      "hi": 7458,
      "就知道": 7459,
      "因为我": 7460,
      "你咋": 7461,
      "谁是": 7462,
      "高兴": 7463,
      "对了": 7464,
      "火车": 7465,
      "唱歌": 7466,
      "我是小通": 7467,
      "不要啊": 7468,
      "她是": 7469,
      "我吗": 7470,
      "身边": 7471,
      "你说话": 7472,
      "我看": 7473,
      "生日": 7474,
      "真是": 7475,
      "傻子": 7476,
      "直接": 7477,
      "*)": 7478,
      "我给你": 7479,
      "骂人": 7480,
      "我没有": 7481,
      "没人": 7482,
      "你什么": 7483,
      "我来": 7484,
      "的吗": 7485,
      "or": 7486,
      "同桌": 7487,
      "自闭": 7488,
      "这种": 7489,
      "不说": 7490,
      "啪啪": 7491,
      "分钟": 7492,
      "我才": 7493,
      "帮你": 7494,
      "自闭的": 7495,
      "我再": 7496,
      "最后": 7497,
      "没错": 7498,
      "俩吗": 7499,
      "就好": 7500,
      "我觉得": 7501,
      "算了": 7502,
      "先有": 7503,
      "她们俩吗": 7504,
      "今年": 7505,
      "不是她们俩吗": 7506,
      "╰)╮": 7507,
      "sb": 7508,
      "╭(╯": 7509,
      "主淫": 7510,
      "心情不好": 7511,
      "没关系": 7512,
      "黄色": 7513,
      "下来": 7514,
      "去吃": 7515,
      "坏蛋": 7516,
      "算算": 7517,
      "狮子座": 7518,
      "24": 7519,
      "no": 7520,
      "我又": 7521,
      "爸妈": 7522,
      "不好意思": 7523,
      "金牛": 7524,
      "吃你": 7525,
      "吩咐": 7526,
      "生的": 7527,
      "la": 7528,
      "不上": 7529,
      "水瓶座": 7530,
      "10": 7531,
      "12": 7532,
      "游戏": 7533,
      "几天": 7534,
      "小心": 7535,
      "的哥": 7536,
      "生活": 7537,
      "战斗": 7538,
      "比较": 7539,
      "等于": 7540,
      "老大": 7541,
      "看见": 7542,
      "就是你": 7543,
      "/>": 7544,
      "不开心": 7545,
      "试试": 7546,
      "你是鸡": 7547,
      "在家": 7548,
      "肚子": 7549,
      "去吧": 7550,
      "ck": 7551,
      "他妈": 7552,
      "在哪里": 7553,
      "北京": 7554,
      "总是": 7555,
      "我家": 7556,
      "让他": 7557,
      "过了": 7558,
      "人的": 7559,
      "大哥": 7560,
      "小的": 7561,
      "玩了": 7562,
      "很好": 7563,
      "待会": 7564,
      "结果": 7565,
      "有没有": 7566,
      "一句": 7567,
      "一辈子": 7568,
      "要不": 7569,
      "自动回复": 7570,
      "高中": 7571,
      "太快": 7572,
      "do": 7573,
      "ta": 7574,
      "≦)": 7575,
      "好吃的": 7576,
      "二逼": 7577,
      "一次": 7578,
      "你傻": 7579,
      "什么是": 7580,
      "你来": 7581,
      "程序": 7582,
      "鸡肉": 7583,
      "你是个": 7584,
      "准备": 7585,
      "衣服": 7586,
      "是吗": 7587,
      "你到底": 7588,
      "坏人": 7589,
      "这里": 7590,
      "马上": 7591,
      "白痴": 7592,
      "碗里": 7593,
      "鸡鸡鸡鸡": 7594,
      "生效": 7595,
      "身体": 7596,
      "能不能": 7597,
      "听话": 7598,
      "毛线": 7599,
      "给他": 7600,
      "我不要": 7601,
      "兄弟": 7602,
      "温柔": 7603,
      "矮油": 7604,
      "傻瓜": 7605,
      "绝对": 7606,
      "还会": 7607,
      "状态": 7608,
      "除了": 7609,
      "就是我": 7610,
      "待会就": 7611,
      "变成": 7612,
      "simi": 7613,
      "刚才": 7614,
      "(≧": 7615,
      "上班": 7616,
      "牛逼": 7617,
      "生效了": 7618,
      "co": 7619,
      "富帅": 7620,
      "回我": 7621,
      "恶心": 7622,
      "发现了": 7623,
      "废话": 7624,
      "待会就生效了": 7625,
      "师傅": 7626,
      "的大": 7627,
      "你敢": 7628,
      "爷爷": 7629,
      "什么事": 7630,
      "你说我": 7631,
      "陛下": 7632,
      "机器人": 7633,
      "减肥": 7634,
      "哼哼": 7635,
      "割割": 7636,
      "笑了": 7637,
      "几点": 7638,
      "这么多": 7639,
      "突然": 7640,
      "次奥": 7641,
      "解释": 7642,
      "我是鸡": 7643,
      "旁边": 7644,
      "变态": 7645,
      "了啊": 7646,
      "白羊": 7647,
      "速度": 7648,
      "女孩": 7649,
      "ra": 7650,
      "亲亲": 7651,
      "挂科": 7652,
      "英语": 7653,
      "我也爱你": 7654,
      "再说": 7655,
      "。。。。。。。。": 7656,
      "••": 7657,
      "双鱼": 7658,
      "想到": 7659,
      "你是我": 7660,
      "愿意": 7661,
      "你啦": 7662,
      "你不会": 7663,
      "es": 7664,
      "不猜": 7665,
      "jj": 7666,
      "姑娘": 7667,
      "看来": 7668,
      "你说的": 7669,
      "主人我错了": 7670,
      "呵呵呵呵呵呵呵呵": 7671,
      "处女": 7672,
      "▽≦)": 7673,
      "关注": 7674,
      "本来": 7675,
      "炖了": 7676,
      "为了": 7677,
      "地球": 7678,
      "不不": 7679,
      "见过": 7680,
      "只鸡": 7681,
      "bi": 7682,
      "换个": 7683,
      "什么都": 7684,
      "金牛座": 7685,
      "班主任": 7686,
      "br": 7687,
      "你教": 7688,
      "跟我说": 7689,
      "不可以": 7690,
      "拜拜": 7691,
      "▽≦)/": 7692,
      "好吗": 7693,
      "什么意思": 7694,
      "咋办": 7695,
      "电影": 7696,
      "你是什么": 7697,
      "叫你": 7698,
      "看我": 7699,
      "刚刚": 7700,
      "呵呵了": 7701,
      "超级无敌": 7702,
      "忘了": 7703,
      "睡吧": 7704,
      "终于": 7705,
      "回的": 7706,
      "秘密": 7707,
      "等着": 7708,
      "¯︶": 7709,
      "哥们": 7710,
      "one": 7711,
      "¯︶¯": 7712,
      "了怎么办": 7713,
      "从来": 7714,
      "咱们": 7715,
      "果然": 7716,
      "脑子": 7717,
      "哎呦": 7718,
      "是一": 7719,
      "好像": 7720,
      "性格": 7721,
      "跟他": 7722,
      "上的": 7723,
      "我和": 7724,
      "玩意": 7725,
      "特么": 7726,
      "想吃": 7727,
      "不了你": 7728,
      "li": 7729,
      "老子": 7730,
      "肿么办": 7731,
      "小黄鸭": 7732,
      "tm": 7733,
      "你你": 7734,
      "做的": 7735,
      "你是我的": 7736,
      "他会": 7737,
      "鸡仔": 7738,
      "承认": 7739,
      "你呢": 7740,
      "你给": 7741,
      "鸡翅": 7742,
      "(*¯︶¯": 7743,
      "主页": 7744,
      "哦哦": 7745,
      "我这": 7746,
      "快去": 7747,
      "我擦": 7748,
      "娘娘": 7749,
      "我吃": 7750,
      "\\(≧": 7751,
      "天秤": 7752,
      "是大": 7753,
      "我不想": 7754,
      "er": 7755,
      "不信": 7756,
      "爱的人": 7757,
      "鸡腿": 7758,
      "▽≦)/~": 7759,
      "本周": 7760,
      "好听": 7761,
      "你还有我": 7762,
      "辛苦": 7763,
      "爱你了": 7764,
      "会有": 7765,
      "炖蘑菇": 7766,
      "神经": 7767,
      "我妈": 7768,
      "父亲": 7769,
      "希望": 7770,
      "ay": 7771,
      "别的": 7772,
      "ea": 7773,
      "门口": 7774,
      "我不喜欢": 7775,
      "一切": 7776,
      "倒霉": 7777,
      "这样的": 7778,
      "13": 7779,
      "对的": 7780,
      "(*¯︶¯*)": 7781,
      "不是我": 7782,
      "大叔": 7783,
      "讲笑话": 7784,
      "不吃": 7785,
      "干啥": 7786,
      "昨天": 7787,
      "有啊": 7788,
      "别难过": 7789,
      "唰唰": 7790,
      "明明": 7791,
      "是小": 7792,
      "走了": 7793,
      "会不会": 7794,
      "嘎嘎": 7795,
      "清楚": 7796,
      "答案": 7797,
      "高富帅": 7798,
      "主人的": 7799,
      "专业": 7800,
      "早上": 7801,
      "样的": 7802,
      "世界上最": 7803,
      "啊你": 7804,
      "骂我": 7805,
      "出来的": 7806,
      "一枚": 7807,
      "9999": 7808,
      "qq": 7809,
      "不认识": 7810,
      "最喜欢": 7811,
      "和你聊天": 7812,
      "善良": 7813,
      "en": 7814,
      "失眠": 7815,
      "小小": 7816,
      "22": 7817,
      "彼此": 7818,
      "猪头": 7819,
      "反应": 7820,
      "我啊": 7821,
      "软件": 7822,
      "逼的": 7823,
      "我是谁": 7824,
      "非所": 7825,
      "全世界": 7826,
      "注意": 7827,
      "几乎": 7828,
      "大大": 7829,
      "我今天": 7830,
      "和他": 7831,
      "我可": 7832,
      "\\(≧▽≦)/~": 7833,
      "不累": 7834,
      "都在": 7835,
      "都有": 7836,
      "你不知道": 7837,
      "你这个": 7838,
      "理我": 7839,
      "骗子": 7840,
      "给爷": 7841,
      "hat": 7842,
      "th": 7843,
      "好呀": 7844,
      "就会": 7845,
      "皇上": 7846,
      "就说": 7847,
      "节操": 7848,
      "隔壁": 7849,
      "白羊座": 7850,
      "左右": 7851,
      "se": 7852,
      "健康": 7853,
      "请问": 7854,
      "不够": 7855,
      "因为他": 7856,
      "上课": 7857,
      "不哭": 7858,
      "几岁": 7859,
      "开点": 7860,
      "第二": 7861,
      "颜色": 7862,
      "by": 7863,
      "∇≦": 7864,
      "怎么不": 7865,
      "~\\(≧▽≦)/~": 7866,
      "元芳": 7867,
      "学会": 7868,
      "找我": 7869,
      "无法": 7870,
      "喜欢我": 7871,
      "天下": 7872,
      "奴才": 7873,
      "你怎么看": 7874,
      "56": 7875,
      "≧∇≦": 7876,
      "学院": 7877,
      "泥马": 7878,
      "系统": 7879,
      "（≧∇≦": 7880,
      "（≧∇≦）": 7881,
      "simsimi": 7882,
      "分手": 7883,
      "我一直": 7884,
      "智能": 7885,
      "火锅": 7886,
      "你是人": 7887,
      "我想吃": 7888,
      "喔喔": 7889,
      "大帅哥": 7890,
      "͡͡͡͡͡͡͡͡": 7891,
      "am": 7892,
      "你主人": 7893,
      "你还是": 7894,
      "老班": 7895,
      "你先": 7896,
      "回头": 7897,
      "看书": 7898,
      "自己的": 7899,
      "敷衍": 7900,
      "灰常": 7901,
      "，，，，": 7902,
      "ply": 7903,
      "只能": 7904,
      "说说": 7905,
      "句话": 7906,
      "了个": 7907,
      "有多": 7908,
      "不爱": 7909,
      "是我的": 7910,
      "~~~~": 7911,
      "reply": 7912,
      "是你的": 7913,
      "死的": 7914,
      "。。。。。": 7915,
      "不要嘛": 7916,
      "鸡吗": 7917,
      "我不知道": 7918,
      "明白": 7919,
      "网吧": 7920,
      "只会": 7921,
      "重要": 7922,
      "你妈妈": 7923,
      "就好了": 7924,
      "我可以": 7925,
      "被你发现了": 7926,
      "失恋": 7927,
      "胖子": 7928,
      "容易": 7929,
      "深的": 7930,
      "飞机": 7931,
      "！…": 7932,
      "到碗里": 7933,
      "早点": 7934,
      "不要脸": 7935,
      "reply小通": 7936,
      "下次": 7937,
      "高数": 7938,
      "倒霉孩子": 7939,
      "放心": 7940,
      "fu": 7941,
      "天秤座": 7942,
      "大傻逼": 7943,
      "混蛋": 7944,
      "!!!!": 7945,
      "介绍个": 7946,
      "太深": 7947,
      "奶奶": 7948,
      "不好笑": 7949,
      "孩纸": 7950,
      "的一": 7951,
      "脑残": 7952,
      "你猜我猜": 7953,
      "看不清": 7954,
      "答非所": 7955,
      "怎么会": 7956,
      "不多": 7957,
      "淡定": 7958,
      "算命": 7959,
      "里面": 7960,
      "你一": 7961,
      "你和": 7962,
      "样子": 7963,
      "表白": 7964,
      "我是小": 7965,
      "两个倒霉孩子": 7966,
      "你也是": 7967,
      "蛋蛋": 7968,
      "外面": 7969,
      "还用": 7970,
      "可怜": 7971,
      "小时候": 7972,
      "个屁": 7973,
      "好啦": 7974,
      "想开点": 7975,
      "这都": 7976,
      "宇宙无敌": 7977,
      "去洗澡": 7978,
      "答非所问": 7979,
      "吃人": 7980,
      "随便": 7981,
      "单身": 7982,
      "扣扣": 7983,
      "你全家都是": 7984,
      "100": 7985,
      "不可": 7986,
      "是啥": 7987,
      "眼睛": 7988,
      "那你是": 7989,
      "臭臭": 7990,
      "要不要": 7991,
      "我是你的": 7992,
      "交警": 7993,
      "要吃": 7994,
      "再来": 7995,
      "人家是": 7996,
      "我喜欢你": 7997,
      "双鱼座": 7998,
      "亲戚": 7999,
      "我陪你": 8000,
      "吃鸡肉": 8001,
      "到你": 8002,
      "小孩": 8003,
      "在你身边": 8004,
      "那你说": 8005,
      "臭鸡": 8006,
      "他不": 8007,
      "小时": 8008,
      "就去": 8009,
      "真的吗": 8010,
      "刚被": 8011,
      "年轻": 8012,
      "晚了": 8013,
      "当然了": 8014,
      "休息一下": 8015,
      "一的哥": 8016,
      "感冒": 8017,
      "没了": 8018,
      "ho": 8019,
      "的啦": 8020,
      "的说": 8021,
      "草泥马": 8022,
      "你没有": 8023,
      "我饿了": 8024,
      "流氓": 8025,
      "ll": 8026,
      "不配": 8027,
      "路上": 8028,
      "(******": 8029,
      "听说": 8030,
      "我一": 8031,
      "so": 8032,
      "到了": 8033,
      "萌妹纸": 8034,
      "那里": 8035,
      "都会": 8036,
      "中午": 8037,
      "快来": 8038,
      "说我": 8039,
      "(******)": 8040,
      "复习": 8041,
      "嫌我": 8042,
      "猥琐": 8043,
      "不是你": 8044,
      "不知": 8045,
      "恋爱": 8046,
      "桑心": 8047,
      "主人别难过": 8048,
      "红烧": 8049,
      "非常": 8050,
      "are": 8051,
      "大笨蛋": 8052,
      "难受": 8053,
      "我还是": 8054,
      "水太深": 8055,
      "一些": 8056,
      "坏了": 8057,
      "处女座": 8058,
      "好梦": 8059,
      "完了": 8060,
      "一看": 8061,
      "下午": 8062,
      "不去": 8063,
      "做饭": 8064,
      "吵架": 8065,
      "担心": 8066,
      "爷们": 8067,
      "发生": 8068,
      "成绩": 8069,
      "推荐": 8070,
      "精神": 8071,
      "美的": 8072,
      "是什么意思": 8073,
      "吼吼": 8074,
      "太多了": 8075,
      "方式": 8076,
      "最最": 8077,
      "(∩": 8078,
      "mu": 8079,
      "偷偷": 8080,
      "我只是": 8081,
      "人家会": 8082,
      "不怕": 8083,
      "选择": 8084,
      "噢噢": 8085,
      "没意思": 8086,
      "小白": 8087,
      "艾特": 8088,
      "知道了": 8089,
      "主人我错了呜呜呜": 8090,
      "∩)": 8091,
      "数学": 8092,
      "你再": 8093,
      "在呢": 8094,
      "你是谁": 8095,
      "好友": 8096,
      "实话": 8097,
      "吃饭了": 8098,
      "你教我的": 8099,
      "擦擦": 8100,
      "妈的": 8101,
      "想要": 8102,
      "爱他": 8103,
      "ma": 8104,
      "下去": 8105,
      "做我": 8106,
      "自然": 8107,
      "不准": 8108,
      "哎哟": 8109,
      "你这么": 8110,
      "没办法": 8111,
      "法律": 8112,
      "你真的": 8113,
      "我现在": 8114,
      "机会": 8115,
      "见识": 8116,
      "to": 8117,
      "冷笑话": 8118,
      "切糕": 8119,
      "鸡毛": 8120,
      "你回复": 8121,
      "真心": 8122,
      "从前": 8123,
      "奇葩": 8124,
      "就要": 8125,
      "我的麻麻": 8126,
      "服务": 8127,
      "33": 8128,
      "到我": 8129,
      "包子": 8130,
      "坚持": 8131,
      "当然啦": 8132,
      "人家错了": 8133,
      "啊啊啊": 8134,
      "be": 8135,
      "根据": 8136,
      "而且": 8137,
      "脏话": 8138,
      "天天嫌我": 8139,
      "可是我": 8140,
      "学霸": 8141,
      "爱她": 8142,
      "the": 8143,
      "夸奖": 8144,
      "有何": 8145,
      "英雄": 8146,
      "第一次": 8147,
      "他也": 8148,
      "咯咯": 8149,
      "灰了": 8150,
      "马嘴": 8151,
      "黄的": 8152,
      "我的麻麻你啦": 8153,
      "会儿": 8154,
      "支持": 8155,
      "的男人": 8156,
      "首歌": 8157,
      "不见": 8158,
      "不说了": 8159,
      "人妖": 8160,
      "或者": 8161,
      "毕业": 8162,
      "what": 8163,
      "在想你": 8164,
      "感谢": 8165,
      "我会一直": 8166,
      "人民": 8167,
      "以前": 8168,
      "会的": 8169,
      "讲一个": 8170,
      "怎么啦": 8171,
      "今晚": 8172,
      "你不要": 8173,
      "这不是": 8174,
      "不给": 8175,
      "和我说": 8176,
      "坑爹": 8177,
      "'''": 8178,
      "可爱的小": 8179,
      "越来": 8180,
      "我问你": 8181,
      "死机": 8182,
      "多少钱": 8183,
      "挂了": 8184,
      "最帅": 8185,
      "现在的": 8186,
      "你懂的": 8187,
      "越来越": 8188,
      "离开": 8189,
      "汪汪": 8190,
      "这是我": 8191,
      "我要吃": 8192,
      "宝贝儿": 8193,
      "你大爷的": 8194,
      "情况": 8195,
      "有木有": 8196,
      "正常": 8197,
      "骗人": 8198,
      "你怎么不": 8199,
      "吃货": 8200,
      "果断": 8201,
      "18": 8202,
      "吃屎": 8203,
      "别生气了": 8204,
      "十分钟": 8205,
      "符号": 8206,
      "love": 8207,
      "baby": 8208,
      "保护": 8209,
      "是女": 8210,
      "请你吃": 8211,
      "ry": 8212,
      "有的": 8213,
      "每次": 8214,
      "用手机": 8215,
      "确定": 8216,
      "ni": 8217,
      "不跟你": 8218,
      "太多": 8219,
      "想我": 8220,
      "玩的": 8221,
      "要你": 8222,
      "星座的": 8223,
      "去哪": 8224,
      "打电话": 8225,
      "过去": 8226,
      "*^": 8227,
      "了没": 8228,
      "舒服": 8229,
      "ch": 8230,
      "未来": 8231,
      "死你了": 8232,
      "鸡汤": 8233,
      "鼻子": 8234,
      "好好学习": 8235,
      "反正": 8236,
      "小笨鸡": 8237,
      "说要": 8238,
      "66": 8239,
      "你那": 8240,
      "笑一个": 8241,
      "给我讲个笑话": 8242,
      "我问": 8243,
      "男女": 8244,
      "出来了": 8245,
      "他了": 8246,
      "号码": 8247,
      "好基友": 8248,
      "我怕": 8249,
      "玩嘛": 8250,
      "看不到": 8251,
      "而已": 8252,
      "中的战斗": 8253,
      "默默": 8254,
      "pp": 8255,
      "不如": 8256,
      "他爸妈": 8257,
      "小三": 8258,
      "放屁": 8259,
      "欢迎": 8260,
      "没法": 8261,
      "翅膀": 8262,
      "咱俩": 8263,
      "一般见识": 8264,
      "25": 8265,
      "_π": 8266,
      "π_π": 8267,
      "不和你": 8268,
      "困了": 8269,
      "对呀": 8270,
      "糗百": 8271,
      "饶命": 8272,
      "鸡还是": 8273,
      "女友": 8274,
      "te": 8275,
      "天才": 8276,
      "爱吃": 8277,
      "相关": 8278,
      "适合": 8279,
      "fuck": 8280,
      "做什么": 8281,
      "再见": 8282,
      "客气": 8283,
      "性别": 8284,
      "你还会": 8285,
      "你别": 8286,
      "同意": 8287,
      "的问题": 8288,
      "看过": 8289,
      "回答我": 8290,
      "公式": 8291,
      "老是": 8292,
      "让她": 8293,
      "假的": 8294,
      "我发": 8295,
      "笑的": 8296,
      "讨厌啦": 8297,
      "活着": 8298,
      "评论": 8299,
      "小通累了": 8300,
      "不要这样": 8301,
      "我想你了": 8302,
      "我能": 8303,
      "教我": 8304,
      "小母鸡": 8305,
      "照片": 8306,
      "笨笨": 8307,
      "喜欢的": 8308,
      "千万": 8309,
      "得最": 8310,
      "想想": 8311,
      "感情": 8312,
      "看你": 8313,
      "你俩": 8314,
      "傻了": 8315,
      ",,,": 8316,
      "得不": 8317,
      "im": 8318,
      "的么": 8319,
      "不卖": 8320,
      "二二": 8321,
      "思密": 8322,
      "苦逼": 8323,
      "不好玩": 8324,
      "你爸爸": 8325,
      "声音": 8326,
      "害怕": 8327,
      "年纪": 8328,
      "爆了": 8329,
      "虽然": 8330,
      "什么啊": 8331,
      "万万岁": 8332,
      "加我": 8333,
      "摸摸": 8334,
      "你以为": 8335,
      "我帮你": 8336,
      "父母": 8337,
      "你是男的": 8338,
      "我的主人": 8339,
      "可爱了": 8340,
      "一生": 8341,
      "三个": 8342,
      "别跟他": 8343,
      "吃完": 8344,
      "平时": 8345,
      "想你了": 8346,
      "法规": 8347,
      "思密达": 8348,
      "不可能": 8349,
      "似的": 8350,
      "居然": 8351,
      "长得": 8352,
      "不对马嘴": 8353,
      "一遍": 8354,
      "二五": 8355,
      "又是": 8356,
      "打你": 8357,
      "是呀": 8358,
      "答应": 8359,
      "什么关系": 8360,
      "他们不配": 8361,
      "下面": 8362,
      "听不懂": 8363,
      "她的": 8364,
      "存在": 8365,
      "教的": 8366,
      "说出来": 8367,
      "^*": 8368,
      "门一般见识": 8369,
      "你都不": 8370,
      "唯一": 8371,
      "对对": 8372,
      "带着": 8373,
      "男友": 8374,
      "看着": 8375,
      "鄙视": 8376,
      "别跟他门一般见识": 8377,
      "算什么": 8378,
      "因为你": 8379,
      "回家了": 8380,
      "̸̸": 8381,
      "是啊是啊": 8382,
      "34": 8383,
      "万岁万岁": 8384,
      "法律法规": 8385,
      "不在": 8386,
      "对你": 8387,
      "想休息一下": 8388,
      "是鸡": 8389,
      "格格": 8390,
      "纯洁": 8391,
      "舍得": 8392,
      "还在": 8393,
      "一样的": 8394,
      "mm": 8395,
      "vv": 8396,
      "不无语": 8397,
      "他很": 8398,
      "出了": 8399,
      "就把": 8400,
      "舍不得": 8401,
      "相关法律法规": 8402,
      "怕怕": 8403,
      "有些": 8404,
      "跟着": 8405,
      "一把": 8406,
      "段子": 8407,
      "话说": 8408,
      "韩国": 8409,
      "啦啦啦啦": 8410,
      "你会不会": 8411,
      "的最": 8412,
      "根据相关法律法规": 8413,
      "能吃": 8414,
      "鸭子": 8415,
      "小通累了想休息一下": 8416,
      "你爱我": 8417,
      "屁屁": 8418,
      "弟弟": 8419,
      "无奈": 8420,
      "谢谢老师": 8421,
      "hone": 8422,
      "不住": 8423,
      "东东": 8424,
      "火星": 8425,
      "说点": 8426,
      "知道啊": 8427,
      "专门": 8428,
      "你爸": 8429,
      "公主": 8430,
      "点的": 8431,
      "道歉": 8432,
      "锅里": 8433,
      "高智商": 8434,
      "你又不是": 8435,
      "找不到了": 8436,
      "动物": 8437,
      "太阳": 8438,
      "放弃": 8439,
      "特地": 8440,
      ".....": 8441,
      "你不懂": 8442,
      "欺负我": 8443,
      "吧你": 8444,
      "当年": 8445,
      "这只": 8446,
      "都没": 8447,
      "里的": 8448,
      "额额": 8449,
      "因为我是": 8450,
      "好孩子": 8451,
      "成功": 8452,
      "一定是": 8453,
      "人了": 8454,
      "傲娇": 8455,
      "那些": 8456,
      "我还没": 8457,
      "T_": 8458,
      "你打": 8459,
      "哪儿": 8460,
      "萌萌": 8461,
      "中国的": 8462,
      "啥时候": 8463,
      "学生": 8464,
      "快说": 8465,
      "女王陛下": 8466,
      "差不多": 8467,
      "来来": 8468,
      "鸡巴": 8469,
      "不告诉你": 8470,
      "个人": 8471,
      "当时": 8472,
      "语言": 8473,
      "肯定是": 8474,
      "哭了": 8475,
      "子的": 8476,
      "早就": 8477,
      "是是": 8478,
      "没你": 8479,
      "聊了": 8480,
      "亲爱的主人": 8481,
      "忘记": 8482,
      "错误": 8483,
      "开玩": 8484,
      "我真的": 8485,
      "行的": 8486,
      "咱们不无语": 8487,
      "了我": 8488,
      "经常": 8489,
      "女王大人": 8490,
      "如此": 8491,
      "岁左右": 8492,
      "骂你": 8493,
      "咱们不无语哈": 8494,
      "你老婆": 8495,
      "理解": 8496,
      "的不": 8497,
      "埋汰": 8498,
      "来一": 8499,
      "纠结": 8500,
      "钓鱼": 8501,
      "～～～": 8502,
      "吵架了": 8503,
      "ia": 8504,
      "到的": 8505,
      "心理": 8506,
      "活了": 8507,
      "科学": 8508,
      "第三": 8509,
      "贱贱": 8510,
      "万岁万岁万万岁": 8511,
      "T_T": 8512,
      "七八": 8513,
      "激素": 8514,
      "的啊": 8515,
      "眼神": 8516,
      "联系": 8517,
      "好累": 8518,
      "昨晚": 8519,
      "证明": 8520,
      "佩服": 8521,
      "烤鸡": 8522,
      "神奇": 8523,
      "一只鸡": 8524,
      "这么多人": 8525,
      "你回": 8526,
      "值得": 8527,
      "可惜": 8528,
      "帮助": 8529,
      "心疼": 8530,
      "简单": 8531,
      "怎么可能": 8532,
      "你说什么": 8533,
      "多大了": 8534,
      "运动": 8535,
      "靠谱": 8536,
      "考试了": 8537,
      "54": 8538,
      "床上": 8539,
      "方程": 8540,
      "有何吩咐": 8541,
      "你什么时候": 8542,
      "疯了": 8543,
      "都要": 8544,
      "你应该": 8545,
      "勇敢": 8546,
      "后来": 8547,
      "大姨": 8548,
      "安排": 8549,
      "我跟": 8550,
      "照顾": 8551,
      "笑什么": 8552,
      "小通炖蘑菇": 8553,
      "我也不知道": 8554,
      "、、": 8555,
      "日子": 8556,
      "代表": 8557,
      "姻缘": 8558,
      "鸡哥": 8559,
      "我的心": 8560,
      "rap": 8561,
      "人话": 8562,
      "味道": 8563,
      "妈咪": 8564,
      "激动": 8565,
      "的地方": 8566,
      "同类": 8567,
      "还能": 8568,
      "你是小": 8569,
      "给你个": 8570,
      "dota": 8571,
      "十分钟后": 8572,
      "好不": 8573,
      "是最": 8574,
      "翻身": 8575,
      "老爸": 8576,
      "过的": 8577,
      "也不怎么": 8578,
      "也有": 8579,
      "前程": 8580,
      "爱你的": 8581,
      "等下": 8582,
      "紧张": 8583,
      "好听的": 8584,
      "了啦": 8585,
      "吃了你": 8586,
      "在干嘛": 8587,
      "神经病": 8588,
      "你可": 8589,
      "吃药": 8590,
      "各种": 8591,
      "天了": 8592,
      "男是女": 8593,
      "等我": 8594,
      "蛋疼": 8595,
      "我是男的": 8596,
      "ang": 8597,
      "好鸡": 8598,
      "嫌弃": 8599,
      "恭喜": 8600,
      "期末": 8601,
      "管你": 8602,
      "要是": 8603,
      "钓鱼岛": 8604,
      "你二": 8605,
      "私聊": 8606,
      "下雪": 8607,
      "人都知道": 8608,
      "你老公": 8609,
      "定理": 8610,
      "没说": 8611,
      "学会啦": 8612,
      "有多少": 8613,
      "有意思": 8614,
      "社会": 8615,
      "进来": 8616,
      "？？？？": 8617,
      "你这只": 8618,
      "不睡觉": 8619,
      "郁闷": 8620,
      "麦当": 8621,
      "怎么做": 8622,
      "怎么能": 8623,
      "come": 8624,
      "gh": 8625,
      "厕所": 8626,
      "威武": 8627,
      "认真": 8628,
      "GC": 8629,
      "吃吧": 8630,
      "感受": 8631,
      "确实": 8632,
      "连续": 8633,
      "yes": 8634,
      "会啊": 8635,
      "到处": 8636,
      "大埋汰": 8637,
      "有一个": 8638,
      "一下嘛": 8639,
      "ok": 8640,
      "喝水": 8641,
      "想的": 8642,
      "是人": 8643,
      "考虑": 8644,
      "领导": 8645,
      "这么大": 8646,
      "上来": 8647,
      "大王": 8648,
      "无所": 8649,
      "你是公鸡": 8650,
      "有事": 8651,
      "玩儿": 8652,
      "下班": 8653,
      "不嘛": 8654,
      "到我了": 8655,
      "口味": 8656,
      "接电话": 8657,
      "羞涩": 8658,
      "走着": 8659,
      "还好": 8660,
      "你们全家": 8661,
      "特别特别": 8662,
      "但是你": 8663,
      "你是公的": 8664,
      "麦当劳": 8665,
      "文明": 8666,
      "百度": 8667,
      "老板": 8668,
      "这回": 8669,
      "那我就": 8670,
      "你猜我猜不猜": 8671,
      "小黑": 8672,
      "没想到": 8673,
      "你有没有": 8674,
      "去找": 8675,
      "吃掉": 8676,
      "地上了": 8677,
      "虫子": 8678,
      "解决": 8679,
      "一定要": 8680,
      "oh": 8681,
      "十八": 8682,
      "头上": 8683,
      "我已经": 8684,
      "我老公": 8685,
      "由于": 8686,
      "监考": 8687,
      "这就": 8688,
      "下的": 8689,
      "主子": 8690,
      "拉出去": 8691,
      "陪着你": 8692,
      "你妹妹": 8693,
      "好玩的": 8694,
      "2b": 8695,
      "ri": 8696,
      "咔咔": 8697,
      "我最喜欢": 8698,
      "0000": 8699,
      "lz": 8700,
      "人爱": 8701,
      "你干嘛": 8702,
      "大了": 8703,
      "大黄鸡": 8704,
      "慢慢": 8705,
      "换一个": 8706,
      "记住": 8707,
      "以后不说了": 8708,
      "作业": 8709,
      "几年": 8710,
      "完整": 8711,
      "开朗": 8712,
      "被骗": 8713,
      "让他们": 8714,
      "呜呜呜呜": 8715,
      "口可": 8716,
      "呵你妹": 8717,
      "在意": 8718,
      "家的": 8719,
      "比我": 8720,
      "是个大": 8721,
      "大家都": 8722,
      "你现在": 8723,
      "你平时": 8724,
      "呼吸": 8725,
      "我该": 8726,
      "拉屎": 8727,
      "明显": 8728,
      "！！！！！": 8729,
      "你怎么这么": 8730,
      "23": 8731,
      "会rap": 8732,
      "最爱的": 8733,
      "的萌妹纸": 8734,
      "看海": 8735,
      "没事啦": 8736,
      "我最爱": 8737,
      "也不敢": 8738,
      "之外": 8739,
      "教训": 8740,
      "的回答": 8741,
      "？”": 8742,
      "你才到碗里": 8743,
      "跟我玩嘛": 8744,
      "???": 8745,
      "关于": 8746,
      "前几天": 8747,
      "暗恋": 8748,
      "留言": 8749,
      "着急": 8750,
      "聊的": 8751,
      "轮家": 8752,
      "21": 8753,
      "一日": 8754,
      "淘气": 8755,
      "的双": 8756,
      "讲台": 8757,
      "有什么吩咐": 8758,
      "卧槽": 8759,
      "城市": 8760,
      "表哥": 8761,
      "还说": 8762,
      "媳妇儿": 8763,
      "你去哪": 8764,
      "太快的": 8765,
      "上一": 8766,
      "嗯哼": 8767,
      "对方": 8768,
      "干净": 8769,
      "抓了": 8770,
      "最好": 8771,
      "有了": 8772,
      "留下": 8773,
      "长的": 8774,
      "敷衍我": 8775,
      "我不认识": 8776,
      "不好吃": 8777,
      "你在干嘛": 8778,
      "电视台": 8779,
      "但是我": 8780,
      "你累": 8781,
      "南京": 8782,
      "我做": 8783,
      "我靠": 8784,
      "来啊": 8785,
      "乐意": 8786,
      "口了": 8787,
      "喝酒": 8788,
      "回来了": 8789,
      "完后": 8790,
      "最好的": 8791,
      "你全家都": 8792,
      "会rap的萌妹纸": 8793,
      "会说": 8794,
      "你对": 8795,
      "去去": 8796,
      "回去": 8797,
      "就行": 8798,
      "心想": 8799,
      "都不知道": 8800,
      "又是谁": 8801,
      "好么": 8802,
      "忍心": 8803,
      "我明天": 8804,
      "的那": 8805,
      "的那个": 8806,
      "说句": 8807,
      "我是个": 8808,
      "小小年纪": 8809,
      "78": 8810,
      "一半": 8811,
      "你得": 8812,
      "我刚": 8813,
      "是傻逼": 8814,
      "等等": 8815,
      "麻痹": 8816,
      "太快了": 8817,
      "安安": 8818,
      "火热": 8819,
      "死鸡了": 8820,
      "全部": 8821,
      "工资": 8822,
      "我可是": 8823,
      "你玩": 8824,
      "停车": 8825,
      "显示": 8826,
      "那么快": 8827,
      "啾啾": 8828,
      "在乎": 8829,
      "好久": 8830,
      "孤独": 8831,
      "王八": 8832,
      "说吧": 8833,
      "那必须的": 8834,
      "我是傻": 8835,
      "不理你了π_π": 8836,
      "我再不理你了π_π": 8837,
      "你老": 8838,
      "班上": 8839,
      "脑袋": 8840,
      "自恋": 8841,
      "鸡窝": 8842,
      "和你说话": 8843,
      "嘟嘟": 8844,
      "没问题": 8845,
      "炸鸡": 8846,
      "的你": 8847,
      "苹果": 8848,
      "还是母鸡": 8849,
      "生日快乐": 8850,
      "我不要你": 8851,
      "你才到碗里去": 8852,
      "的老婆": 8853,
      "的声音": 8854,
      "讲的": 8855,
      "醒了": 8856,
      "黄黄": 8857,
      "觉得我": 8858,
      "安慰人": 8859,
      "你咋知道": 8860,
      "gb": 8861,
      "他算什么": 8862,
      "大概": 8863,
      "开口了": 8864,
      "想你的": 8865,
      "接受": 8866,
      "早起": 8867,
      "黄鳝": 8868,
      "人生": 8869,
      "你前": 8870,
      "学的": 8871,
      "我什么时候": 8872,
      "跟你说": 8873,
      "什么呢": 8874,
      "漂亮的": 8875,
      "一口": 8876,
      "个去": 8877,
      "为你": 8878,
      "关心": 8879,
      "话多": 8880,
      "跟我走": 8881,
      "too": 8882,
      "东北": 8883,
      "之前": 8884,
      "呀呀": 8885,
      "大头": 8886,
      "的嘛": 8887,
      "雷到我了": 8888,
      "面宝宝": 8889,
      "你说呢": 8890,
      "聪明了": 8891,
      "my": 8892,
      "好快": 8893,
      "微博": 8894,
      "想来": 8895,
      "我永远": 8896,
      "哥哥佩服": 8897,
      "唧唧唧唧": 8898,
      "这种方式": 8899,
      "失恋了": 8900,
      "亲戚家": 8901,
      "看海面宝宝": 8902,
      "这种方式雷到我了": 8903,
      "ke": 8904,
      "他就是": 8905,
      "在用手机": 8906,
      "我可爱的小": 8907,
      "掉的": 8908,
      "爱上": 8909,
      "病了": 8910,
      "的运势": 8911,
      "为什么不": 8912,
      "小小年纪高智商": 8913,
      "我可爱的小妹": 8914,
      "一种": 8915,
      "下雨": 8916,
      "也没": 8917,
      "宿舍": 8918,
      "说脏话": 8919,
      "一个男生": 8920,
      "是你亲": 8921,
      "在用手机看海面宝宝": 8922,
      "wi": 8923,
      "事件": 8924,
      "别这样": 8925,
      "国立": 8926,
      "多久": 8927,
      "快吃": 8928,
      "短途": 8929,
      "胡说": 8930,
      "问问": 8931,
      "go": 8932,
      "发泄": 8933,
      "好想": 8934,
      "小姐": 8935,
      "帅气": 8936,
      "广告": 8937,
      "打鸣": 8938,
      "批评": 8939,
      "竟然": 8940,
      "英文": 8941,
      "身后": 8942,
      "青年": 8943,
      "心理学": 8944,
      "15": 8945,
      "做个": 8946,
      "很有": 8947,
      "杀鸡": 8948,
      "欢乐": 8949,
      "什么的": 8950,
      "我也要": 8951,
      "Sim": 8952,
      "传销": 8953,
      "办公": 8954,
      "坐在": 8955,
      "够了": 8956,
      "的同学": 8957,
      "不要吃我": 8958,
      "你猜猜": 8959,
      "男生的": 8960,
      "lol": 8961,
      "亲一个": 8962,
      "家里": 8963,
      "隐藏": 8964,
      "。。。（": 8965,
      "up": 8966,
      "了嘛": 8967,
      "呃呃": 8968,
      "唱首歌": 8969,
      "天王": 8970,
      "天生": 8971,
      "渐渐": 8972,
      "用的": 8973,
      "阴影": 8974,
      "为什么我": 8975,
      "找到我": 8976,
      "你丫真": 8977,
      "ro": 8978,
      "三三": 8979,
      "不爱你": 8980,
      "你叫": 8981,
      "决定": 8982,
      "去传销": 8983,
      "很爱你": 8984,
      "成20": 8985,
      "认为": 8986,
      "被骗去传销": 8987,
      "办公室": 8988,
      "上海": 8989,
      "了呢": 8990,
      "传说": 8991,
      "在这里": 8992,
      "好冷": 8993,
      "指环": 8994,
      "聪明的": 8995,
      "天天跟": 8996,
      "妹纸一枚": 8997,
      "几乎是": 8998,
      "98": 8999,
      "̩̩": 9000,
      "也会": 9001,
      "我们镇": 9002,
      "你什么星座的": 9003,
      "连续剧": 9004,
      "指环王": 9005,
      "3部": 9006,
      "不来": 9007,
      "不出来": 9008,
      "你开心": 9009,
      "你这是": 9010,
      "内向": 9011,
      "删节": 9012,
      "呼呼": 9013,
      "在播": 9014,
      "拆成20": 9015,
      "无删节": 9016,
      "都没有": 9017,
      "我们镇电视台": 9018,
      "拆成20集": 9019,
      "无删节版": 9020,
      "⊙▽": 9021,
      "好朋友": 9022,
      "才不是": 9023,
      "曲完整": 9024,
      "走向": 9025,
      "考试的": 9026,
      "特别爱": 9027,
      "去吃吧": 9028,
      "mua": 9029,
      "你平时吃": 9030,
      "我们镇电视台拆成20集": 9031,
      "⊙▽⊙": 9032,
      "-#": 9033,
      "36": 9034,
      "不动": 9035,
      "几十": 9036,
      "出现": 9037,
      "咕咕": 9038,
      "早安": 9039,
      "求求": 9040,
      "那男生": 9041,
      "邪恶": 9042,
      "是不是选": 9043,
      "成绩好": 9044,
      "连续剧在播": 9045,
      "3部曲完整": 9046,
      "我们镇电视台拆成20集电视": 9047,
      "乐乎": 9048,
      "亦乐乎": 9049,
      "信么": 9050,
      "惯例": 9051,
      "我讨厌": 9052,
      "打开心": 9053,
      "煮了": 9054,
      "走出了": 9055,
      "给你吃": 9056,
      "你吃了": 9057,
      "跟你聊天": 9058,
      "1111": 9059,
      "3部曲完整无删节版": 9060,
      "ce": 9061,
      "”“": 9062,
      "但由于": 9063,
      "家伙": 9064,
      "沈阳": 9065,
      "混沌": 9066,
      "称号": 9067,
      "赢了": 9068,
      "饭桶": 9069,
      "呵呵呵呵呵呵呵呵呵呵呵呵呵呵呵呵": 9070,
      "特地来": 9071,
      "^^": 9072,
      "xx": 9073,
      "了起来": 9074,
      "会安慰人": 9075,
      "后来的": 9076,
      "学心理学": 9077,
      "来感谢": 9078,
      "神鸡": 9079,
      "跟同桌": 9080,
      "骚年": 9081,
      "还是女的": 9082,
      "你就会": 9083,
      "儿子走出了": 9084,
      "LZ这回": 9085,
      "调戏你": 9086,
      "一会儿": 9087,
      "高中时候": 9088,
      "看我那": 9089,
      "老班当时": 9090,
      "灰常之外": 9091,
      "孩纸打开心": 9092,
      "这不是GC": 9093,
      "说要来感谢": 9094,
      "格格巫": 9095,
      "专门帮助": 9096,
      "当年是不是选": 9097,
      "眼神啊": 9098,
      "让他们儿子走出了": 9099,
      "心想LZ这回": 9100,
      "班上性格": 9101,
      "找到我老班": 9102,
      "那男生渐渐": 9103,
      "我们镇电视台拆成20集电视连续剧在播": 9104,
      "惯例这不是GC": 9105,
      "跟同桌聊天": 9106,
      "心想LZ这回总": 9107,
      "二十": 9108,
      "尾巴": 9109,
      "崽子": 9110,
      "帅吗": 9111,
      "没钱": 9112,
      "的了": 9113,
      "聊得不": 9114,
      "袋装": 9115,
      "现在想来": 9116,
      "好吃吗": 9117,
      "跟我同桌": 9118,
      "一定会": 9119,
      "应该学心理学": 9120,
      "LZ妹纸一枚": 9121,
      "学校找到我老班": 9122,
      "说个笑话": 9123,
      "自闭的一个男生": 9124,
      "自闭的阴影": 9125,
      "自闭的孩纸打开心": 9126,
      "班主任也不怎么": 9127,
      "没法儿": 9128,
      "父母特地来": 9129,
      "就把班上性格": 9130,
      "安排跟我同桌": 9131,
      "特别特别内向": 9132,
      "男生的父母特地来": 9133,
      "天天跟楼主": 9134,
      "老班当时看我那": 9135,
      "灰常之外向": 9136,
      "说要来感谢LZ": 9137,
      "专门帮助自闭的孩纸打开心": 9138,
      "让他们儿子走出了自闭的阴影": 9139,
      "那男生渐渐开朗": 9140,
      "跟同桌聊天了吧": 9141,
      "一是": 9142,
      "亲耐": 9143,
      "岁了": 9144,
      "考场": 9145,
      "胖胖": 9146,
      "这么说": 9147,
      "错了专业": 9148,
      "都是狗": 9149,
      "LZ当年是不是选": 9150,
      "5555": 9151,
      "批评LZ": 9152,
      "但由于成绩好": 9153,
      "后来的一天": 9154,
      "心想LZ这回总没法儿": 9155,
      "聊得不亦乐乎": 9156,
      "自闭的一个男生安排跟我同桌": 9157,
      "就把班上性格特别特别内向": 9158,
      "ca": 9159,
      "很对": 9160,
      "掉地上了": 9161,
      "流感": 9162,
      "祝福": 9163,
      "联盟": 9164,
      "门感受": 9165,
      "没有啊": 9166,
      "那个男生的父母特地来": 9167,
      "性格灰常之外向": 9168,
      "天天跟楼主聊得不亦乐乎": 9169,
      "老班当时看我那眼神啊": 9170,
      "那男生渐渐开朗了起来": 9171,
      "就把班上性格特别特别内向几乎是": 9172,
      "一转": 9173,
      "短信": 9174,
      "。。。）": 9175,
      "人家就是": 9176,
      "你就是个": 9177,
      "几个垃圾": 9178,
      "叫什么名字": 9179,
      "那么多垃圾": 9180,
      "大姨妈": 9181,
      "袋装一下嘛": 9182,
      "班主任也不怎么批评LZ": 9183,
      "专门帮助自闭的孩纸打开心门感受": 9184,
      "几个垃圾袋装一下嘛": 9185,
      "16": 9186,
      "b次奥": 9187,
      "快了": 9188,
      "总要吃": 9189,
      "根本": 9190,
      "胞胎": 9191,
      "请叫我": 9192,
      "遇到": 9193,
      "都是你": 9194,
      "我是女的": 9195,
      "心想LZ这回总没法儿跟同桌聊天了吧": 9196,
      "二是": 9197,
      "咪咪": 9198,
      "我这么": 9199,
      "是只": 9200,
      "炫耀": 9201,
      "爱了": 9202,
      "见谁": 9203,
      "谁先": 9204,
      "特么会安慰人": 9205,
      "上课特别爱": 9206,
      "LZ当年是不是选错了专业": 9207,
      "就把班上性格特别特别内向几乎是自闭的一个男生安排跟我同桌": 9208,
      "总要吃几个垃圾袋装一下嘛": 9209,
      "hh": 9210,
      "zz": 9211,
      "╮(╯": 9212,
      "人类": 9213,
      "属于": 9214,
      "立马": 9215,
      "裤子": 9216,
      "遵命": 9217,
      "那天": 9218,
      "霸气": 9219,
      "必须是": 9220,
      "如果你": 9221,
      "给他一个": 9222,
      "。。。（-": 9223,
      "那个男生的父母特地来学校找到我老班": 9224,
      "上课特别爱说话": 9225,
      "14": 9226,
      "中生": 9227,
      "喵喵": 9228,
      "很可爱": 9229,
      "羡慕": 9230,
      "鸡的": 9231,
      "那你就": 9232,
      "不好好吃": 9233,
      "╰)╭": 9234,
      "你丫真特么会安慰人": 9235,
      "你平时吃那么多垃圾": 9236,
      "77": 9237,
      "pa": 9238,
      "你他妈": 9239,
      "怀孕": 9240,
      "抢着": 9241,
      "珍惜": 9242,
      "经理": 9243,
      "营养": 9244,
      "你是大": 9245,
      "我是不是": 9246,
      "一直打": 9247,
      "监考老师": 9248,
      "专门帮助自闭的孩纸打开心门感受爱": 9249,
      "CC": 9250,
      "un": 9251,
      "上帝": 9252,
      "了真": 9253,
      "你心里": 9254,
      "便便": 9255,
      "在想": 9256,
      "洗洗": 9257,
      "看不见": 9258,
      "你跟": 9259,
      "吃混沌": 9260,
      "四岁左右": 9261,
      "潮是": 9262,
      "爱爱": 9263,
      "狗屎": 9264,
      "的称号": 9265,
      "纳尼": 9266,
      "陪媳妇": 9267,
      "怎么说": 9268,
      "………": 9269,
      "等于多少": 9270,
      "大哥他们": 9271,
      "年轻父亲": 9272,
      "你俩快吃": 9273,
      "带着四岁左右": 9274,
      "胞胎兄弟": 9275,
      "谁先吃完": 9276,
      "他回来": 9277,
      "你今天": 9278,
      "你回家": 9279,
      "兔子": 9280,
      "当我": 9281,
      "我等你": 9282,
      "桌有一": 9283,
      "模式": 9284,
      "毛毛": 9285,
      "的歌": 9286,
      "真的抢着": 9287,
      "我说的": 9288,
      "爸爸喂": 9289,
      "谢谢你": 9290,
      "，，，": 9291,
      "你给个": 9292,
      "的双胞胎兄弟": 9293,
      "饭桶的称号": 9294,
      "一直打闹": 9295,
      "年轻父亲带着四岁左右": 9296,
      "谁先吃完我就": 9297,
      "会被": 9298,
      "你每天": 9299,
      "坏鸡": 9300,
      "晓得": 9301,
      "白白": 9302,
      "还要爸爸喂": 9303,
      "隔壁桌有一": 9304,
      "两个倒霉孩子真的抢着": 9305,
      "下午陪媳妇": 9306,
      "也不敢了": 9307,
      "大哥他们是你亲": 9308,
      "年轻父亲带着四岁左右的双胞胎兄弟": 9309,
      "谁先吃完我就给他一个": 9310,
      "g潮是": 9311,
      "不爱我": 9312,
      "你多": 9313,
      "你几岁": 9314,
      "咋样": 9315,
      "器就是": 9316,
      "奴家": 9317,
      "好男人": 9318,
      "孙子": 9319,
      "座位": 9320,
      "你好可爱": 9321,
      "谢谢夸奖": 9322,
      "美丽的": 9323,
      "乖乖的": 9324,
      "父亲开口了": 9325,
      "感冒了": 9326,
      "我发誓": 9327,
      "两个倒霉孩子真的抢着吃饭了": 9328,
      "下午陪媳妇吃混沌": 9329,
      "大哥他们是你亲儿子": 9330,
      "也许": 9331,
      "事后": 9332,
      "外号": 9333,
      "少女": 9334,
      "情绪": 9335,
      "我爸妈": 9336,
      "烧饼": 9337,
      "狗窝": 9338,
      "看了": 9339,
      "你会一转": 9340,
      "如果我不要你": 9341,
      "二是如果我不要你": 9342,
      "隔壁桌有一年轻父亲带着四岁左右的双胞胎兄弟": 9343,
      "谁先吃完我就给他一个饭桶的称号": 9344,
      "你会一转脸": 9345,
      "二是如果我不要你赔": 9346,
      "na": 9347,
      "人不": 9348,
      "他出去": 9349,
      "小红": 9350,
      "山东": 9351,
      "把他": 9352,
      "早饭": 9353,
      "有我在": 9354,
      "的红": 9355,
      "……“": 9356,
      "回家的": 9357,
      "就知道了": 9358,
      "给你个教训": 9359,
      "一是给你个教训": 9360,
      "你给个几十": 9361,
      "你会一转脸就说": 9362,
      "fc": 9363,
      "你更": 9364,
      "这些": 9365,
      "然后就": 9366,
      "一点都不": 9367,
      "两个倒霉孩子不好好吃": 9368,
      "你给个几十吧": 9369,
      "你会一转脸就说我是傻": 9370,
      "凉拌": 9371,
      "出租": 9372,
      "好意思": 9373,
      "美国": 9374,
      "说啥": 9375,
      "你妈逼": 9376,
      "和他吵架了": 9377,
      "千万别": 9378,
      "g潮是两个倒霉孩子真的抢着吃饭了": 9379,
      "一手": 9380,
      "三九": 9381,
      "事实": 9382,
      "他刚": 9383,
      "冲他": 9384,
      "凌乱": 9385,
      "压力": 9386,
      "喜感": 9387,
      "土豆": 9388,
      "感动": 9389,
      "手上": 9390,
      "出去一会": 9391,
      "可爱的小通": 9392,
      "好看的": 9393,
      "电脑显示": 9394,
      "他会信么": 9395,
      "办公室和他吵架了": 9396,
      "经理办公室和他吵架了": 9397,
      "他出去接电话": 9398,
      "他刚出去一会": 9399,
      "从门口": 9400,
      "他爸爸": 9401,
      "他电脑显示": 9402,
      "只见": 9403,
      "在经理办公室和他吵架了": 9404,
      "天津": 9405,
      "它自己": 9406,
      "就算": 9407,
      "说不": 9408,
      "起来了": 9409,
      "锻炼": 9410,
      "叫我等着": 9411,
      "亲耐滴": 9412,
      "他出去接电话叫我等着": 9413,
      "▽╰)╭": 9414,
      "今日": 9415,
      "富美": 9416,
      "寒假": 9417,
      "意的": 9418,
      "我自己": 9419,
      "生命": 9420,
      "被窝": 9421,
      "那是我": 9422,
      "都不会": 9423,
      "呵呵呵": 9424,
      "我说它自己": 9425,
      "先有蛋": 9426,
      "掉的他会信么": 9427,
      "器就是掉地上了": 9428,
      "id": 9429,
      "ie": 9430,
      "一一": 9431,
      "上大": 9432,
      "你大": 9433,
      "后悔": 9434,
      "喊的声音": 9435,
      "嚷道": 9436,
      "忽见": 9437,
      "急中生": 9438,
      "拉起": 9439,
      "是男的": 9440,
      "来啦": 9441,
      "正从门口": 9442,
      "滚蛋": 9443,
      "特爽": 9444,
      "用喊的声音": 9445,
      "罚钱": 9446,
      "羞羞": 9447,
      "被他爸妈": 9448,
      "回复的": 9449,
      "结婚了": 9450,
      "楼主急中生": 9451,
      "找你哪": 9452,
      "正在网吧": 9453,
      "看见一些": 9454,
      "旁边的同学": 9455,
      "做的很对": 9456,
      "我妈正从门口": 9457,
      "几乎用喊的声音": 9458,
      "小孩被他爸妈": 9459,
      "玩的火热": 9460,
      "一把拉起": 9461,
      "到处找你哪": 9462,
      "一日正在网吧": 9463,
      "冲他嚷道": 9464,
      "他电脑显示器就是掉地上了": 9465,
      "忽见我妈正从门口": 9466,
      "几乎用喊的声音冲他嚷道": 9467,
      "一日正在网吧玩的火热": 9468,
      "忽见我妈正从门口进来": 9469,
      "⊙)": 9470,
      "上网吧": 9471,
      "我勒": 9472,
      "扣分": 9473,
      "教你": 9474,
      "是吧": 9475,
      "最美": 9476,
      "给大家": 9477,
      "还觉得我": 9478,
      "黄小通": 9479,
      "感觉特爽": 9480,
      "小时候偷偷": 9481,
      "做我旁边的同学": 9482,
      "╮(╯▽╰)╭": 9483,
      "他回来我说它自己": 9484,
      "楼主急中生智": 9485,
      "看见一些小孩被他爸妈": 9486,
      "一把拉起做我旁边的同学": 9487,
      "还觉得我做的很对": 9488,
      "一黑": 9489,
      "乘客": 9490,
      "事情": 9491,
      "于是": 9492,
      "其他": 9493,
      "去狗窝": 9494,
      "咬谁": 9495,
      "很爱": 9496,
      "晦气": 9497,
      "木耳": 9498,
      "死我了": 9499,
      "炖了你": 9500,
      "运气": 9501,
      "逮到": 9502,
      "你怎么了": 9503,
      "你妈到处找你哪": 9504,
      "吃鸡腿": 9505,
      "还不错": 9506,
      "赶紧跟我走": 9507,
      "火车票": 9508,
      "本来就": 9509,
      "拉出去感觉特爽": 9510,
      "事后我爸妈": 9511,
      "小时候偷偷上网吧": 9512,
      "一群": 9513,
      "万能": 9514,
      "之间": 9515,
      "后的哥": 9516,
      "听一的哥": 9517,
      "咬了真": 9518,
      "坐出租": 9519,
      "实在": 9520,
      "摆手": 9521,
      "是么": 9522,
      "更健康": 9523,
      "有座": 9524,
      "有一天": 9525,
      "此哥们": 9526,
      "气头上": 9527,
      "清蒸": 9528,
      "真乖": 9529,
      "阿姨": 9530,
      "喜欢谁": 9531,
      "正在气头上": 9532,
      "交警逮到": 9533,
      "刚被咬了真": 9534,
      "这只熊": 9535,
      "上来后的哥": 9536,
      "他回来我说它自己掉的他会信么": 9537,
      "看见一些小孩被他爸妈拉出去感觉特爽": 9538,
      "一黑的回答": 9539,
      "乘客上来后的哥": 9540,
      "事后我爸妈还觉得我做的很对": 9541,
      "听一的哥聊的": 9542,
      "正在气头上时": 9543,
      "交警逮到罚钱": 9544,
      "刚被咬了真tm": 9545,
      "shi": 9546,
      "一千": 9547,
      "一百": 9548,
      "一边": 9549,
      "五四": 9550,
      "信不信": 9551,
      "又扣分": 9552,
      "杀了": 9553,
      "真好": 9554,
      "脸一黑的回答": 9555,
      "我不爱你": 9556,
      "这个笑话": 9557,
      "........": 9558,
      "有人摆手": 9559,
      "哥们你去哪": 9560,
      "tm都是狗": 9561,
      "刚被交警逮到罚钱": 9562,
      "一的哥刚被交警逮到罚钱": 9563,
      "现在的交警": 9564,
      "见谁咬谁": 9565,
      "坐出租听一的哥聊的": 9566,
      "乘客上来后的哥开始": 9567,
      "刚被咬了真tm晦气": 9568,
      "kfc": 9569,
      "and": 9570,
      "好啊好啊": 9571,
      "来个笑话": 9572,
      "彼此彼此": 9573,
      "正在气头上时有人摆手": 9574,
      "现在的交警tm都是狗": 9575,
      "乘客上来后的哥开始发泄": 9576,
      "jb": 9577,
      "yle": 9578,
      "在考场": 9579,
      "头像": 9580,
      "就可以": 9581,
      "跪下": 9582,
      "过吗": 9583,
      "零零": 9584,
      "顺利": 9585,
      "你怎么还不": 9586,
      "此哥们脸一黑的回答": 9587,
      "一的哥刚被交警逮到罚钱又扣分": 9588,
      "ml": 9589,
      "不开": 9590,
      "你确定": 9591,
      "的心": 9592,
      "积分": 9593,
      "给你买": 9594,
      "真的是": 9595,
      "你在哪": 9596,
      "ood": 9597,
      "iss": 9598,
      "突然想到": 9599,
      "淡定地": 9600,
      "(⊙": 9601,
      "你吗": 9602,
      "同性": 9603,
      "得好": 9604,
      "我主人": 9605,
      "方便": 9606,
      "衣男": 9607,
      "长大": 9608,
      "肿么了": 9609,
      "女在考场": 9610,
      "她准备": 9611,
      "她身后": 9612,
      "我大": 9613,
      "有啥": 9614,
      "某女在考场": 9615,
      "桃花": 9616,
      "还真": 9617,
      "的小抄": 9618,
      "见过隐藏": 9619,
      "默默坐在": 9620,
      "走向讲台": 9621,
      "考试的喜感": 9622,
      "CC算": 9623,
      "我发誓这是我": 9624,
      "的红衣男": 9625,
      "淡定地走向讲台": 9626,
      "她准备的小抄": 9627,
      "见过隐藏得最": 9628,
      "默默坐在她身后": 9629,
      "的红衣男淡定地走向讲台": 9630,
      "我对": 9631,
      "暴力": 9632,
      "来听听": 9633,
      "谈恋爱": 9634,
      "宇宙超级无敌": 9635,
      "失眠了": 9636,
      "深的监考老师": 9637,
      "前几天考试的喜感": 9638,
      "炫耀她准备的小抄": 9639,
      "座位上大": 9640,
      "我发誓这是我见过隐藏得最": 9641,
      "默默坐在她身后看书": 9642,
      "44": 9643,
      "ga": 9644,
      "ji": 9645,
      "你快": 9646,
      "后边": 9647,
      "听笑话": 9648,
      "年的": 9649,
      "是真的": 9650,
      "肆炫耀她准备的小抄": 9651,
      "迟到": 9652,
      "不要不要": 9653,
      "我不吃": 9654,
      "突然想到前几天考试的喜感": 9655,
      "某女在考场座位上大": 9656,
      "我发誓这是我见过隐藏得最深的监考老师": 9657,
      "默默坐在她身后看书的红衣男淡定地走向讲台": 9658,
      "bo": 9659,
      "再讲一个": 9660,
      "功能": 9661,
      "对我": 9662,
      "色的": 9663,
      "萝卜": 9664,
      "说呵呵": 9665,
      "！”": 9666,
      "你是傻逼": 9667,
      "style": 9668,
      "•••": 9669,
      "突然想到前几天考试的喜感事件": 9670,
      "26": 9671,
      "rl": 9672,
      "ti": 9673,
      "块钱": 9674,
      "我么": 9675,
      "我得": 9676,
      "才会": 9677,
      "敢不敢": 9678,
      "白富美": 9679,
      "盆友": 9680,
      "脾气": 9681,
      "豆豆": 9682,
      "你的主人": 9683,
      "我也想": 9684,
      "你不理我": 9685,
      "把你炖了": 9686,
      "颜色的": 9687,
      "还用问": 9688,
      "他爸": 9689,
      "大神": 9690,
      "我上": 9691,
      "放过": 9692,
      "是一个": 9693,
      "现实": 9694,
      "要么": 9695,
      "喜欢他": 9696,
      "你个头": 9697,
      "桑心了": 9698,
      "某女在考场座位上大肆炫耀她准备的小抄": 9699,
      "可耻": 9700,
      "呱呱": 9701,
      "小主": 9702,
      "方法": 9703,
      "犊子": 9704,
      "长时间": 9705,
      "你就不能": 9706,
      "一条": 9707,
      "个蛋": 9708,
      "也可以": 9709,
      "来呀": 9710,
      "杰伦": 9711,
      "梦里": 9712,
      "深深的": 9713,
      "耶耶": 9714,
      "让人": 9715,
      "我错了主人": 9716,
      "不喜欢我": 9717,
      "不该": 9718,
      "二八": 9719,
      "你小": 9720,
      "信息": 9721,
      "子鸡": 9722,
      "小受": 9723,
      "是滴": 9724,
      "因为她": 9725,
      "你不爱我": 9726,
      "无聊啊": 9727,
      "久了": 9728,
      "之一": 9729,
      "听过": 9730,
      "唱个": 9731,
      "好难": 9732,
      "嫁给我": 9733,
      "小米": 9734,
      "少年": 9735,
      "道路": 9736,
      "好吧好吧": 9737,
      "你能不能": 9738,
      "哈哈哈哈哈哈哈哈": 9739,
      "人见": 9740,
      "吃过": 9741,
      "回事": 9742,
      "好可爱": 9743,
      "安全": 9744,
      "很快": 9745,
      "所有": 9746,
      "通知": 9747,
      "怎么破": 9748,
      "你才傻": 9749,
      "bla": 9750,
      "你做": 9751,
      "医院": 9752,
      "吃点": 9753,
      "宠物": 9754,
      "最讨厌": 9755,
      "萝莉": 9756,
      "还可以": 9757,
      "这你都": 9758,
      "你真是": 9759,
      "就不告诉你": 9760,
      "不上你": 9761,
      "一对": 9762,
      "上学": 9763,
      "多云": 9764,
      "点点": 9765,
      "纯爷们": 9766,
      "你的回复": 9767,
      "给我算算": 9768,
      "͡͡͡͡͡͡͡͡͡͡͡͡͡͡͡͡": 9769,
      "不需要": 9770,
      "密码": 9771,
      "情人": 9772,
      "春运": 9773,
      "晚饭": 9774,
      "财运": 9775,
      "陪着": 9776,
      "就是那个": 9777,
      "么么么": 9778,
      "58": 9779,
      "sa": 9780,
      "||": 9781,
      "听到": 9782,
      "掉了": 9783,
      "爪子": 9784,
      "的老": 9785,
      "行不": 9786,
      "重复": 9787,
      "主人你": 9788,
      "我不开心": 9789,
      "你要不要": 9790,
      "陪你聊天": 9791,
      "(￣": 9792,
      "30": 9793,
      "不听话": 9794,
      "你帮我": 9795,
      "卖身": 9796,
      "太在意": 9797,
      "头发": 9798,
      "差点": 9799,
      "成为": 9800,
      "我同桌": 9801,
      "死他": 9802,
      "省略": 9803,
      "看他": 9804,
      "破鸡": 9805,
      "身上": 9806,
      "速成": 9807,
      "！？": 9808,
      "就是个": 9809,
      "))": 9810,
      "公交": 9811,
      "女儿": 9812,
      "完全": 9813,
      "就能": 9814,
      "我什么": 9815,
      "指着": 9816,
      "泥煤": 9817,
      "用什么": 9818,
      "禽流感": 9819,
      "算法": 9820,
      "给你说": 9821,
      "色鸡": 9822,
      "身材": 9823,
      "这货": 9824,
      "怎么才能": 9825,
      "你是猪": 9826,
      "无聊了": 9827,
      "几个人": 9828,
      "无语了": 9829,
      "出门": 9830,
      "去买": 9831,
      "吃啥": 9832,
      "吃饱": 9833,
      "啥意思": 9834,
      "天然": 9835,
      "小说": 9836,
      "是哪个": 9837,
      "期待": 9838,
      "求姻缘": 9839,
      "蠛蝶": 9840,
      "豆腐": 9841,
      "不知道的": 9842,
      "你丫的": 9843,
      "叽叽叽叽": 9844,
      "早上好": 9845,
      "O_": 9846,
      "对不对": 9847,
      "我把": 9848,
      "打飞机": 9849,
      "求前程": 9850,
      "礼貌": 9851,
      "聊聊": 9852,
      "车上": 9853,
      "雌雄": 9854,
      "你是只": 9855,
      "呵呵是": 9856,
      "七八糟": 9857,
      "fa": 9858,
      "也要": 9859,
      "在这": 9860,
      "大坏蛋": 9861,
      "狗狗": 9862,
      "老母鸡": 9863,
      "不是人": 9864,
      "主人了": 9865,
      "你会说": 9866,
      "你吃饭": 9867,
      "吃鸡蛋": 9868,
      "啪啪啪啪": 9869,
      "我勒个去": 9870,
      "QQ": 9871,
      "can": 9872,
      "tt": 9873,
      "亲爱": 9874,
      "吃肉": 9875,
      "恐怖": 9876,
      "我老婆": 9877,
      "有问题": 9878,
      "裤兜": 9879,
      "为什么要": 9880,
      "sin": 9881,
      "1234": 9882,
      "de": 9883,
      "乱七八糟": 9884,
      "公司": 9885,
      "同时": 9886,
      "帮主": 9887,
      "性感": 9888,
      "火了": 9889,
      "照亮": 9890,
      "男孩": 9891,
      "秒回": 9892,
      "鸡了": 9893,
      "不跟你玩了": 9894,
      "。”": 9895,
      "国家": 9896,
      "是哪": 9897,
      "的主人": 9898,
      "羊羊": 9899,
      "主人不要": 9900,
      "这个表情": 9901,
      "对啊对啊": 9902,
      "不解释": 9903,
      "伤不起": 9904,
      "哇咔咔": 9905,
      "得到": 9906,
      "得瑟": 9907,
      "接着": 9908,
      "的老公": 9909,
      "的东西": 9910,
      "礼物": 9911,
      "跪安": 9912,
      "bu": 9913,
      "乖了": 9914,
      "发表情": 9915,
      "大黄": 9916,
      "大点的": 9917,
      "女子": 9918,
      "这不": 9919,
      "雅蠛蝶": 9920,
      "我们一起": 9921,
      "和你一起": 9922,
      "乖的": 9923,
      "整天": 9924,
      "本事": 9925,
      "注定": 9926,
      "的孩子": 9927,
      "喜欢的人": 9928,
      "那你知道": 9929,
      "嘿嘿嘿": 9930,
      "不见了": 9931,
      "mlgb": 9932,
      "dx": 9933,
      "个头": 9934,
      "为毛": 9935,
      "吃吗": 9936,
      "屎黄": 9937,
      "山炮": 9938,
      "弱智": 9939,
      "我男朋友": 9940,
      "重口味": 9941,
      "￣)": 9942,
      "这么晚了": 9943,
      "我们班主任": 9944,
      "的事情": 9945,
      "人品": 9946,
      "傻叉": 9947,
      "凤姐": 9948,
      "周杰伦": 9949,
      "喂狗": 9950,
      "就像": 9951,
      "很帅": 9952,
      "意义": 9953,
      "揍你": 9954,
      "月亮": 9955,
      "自由": 9956,
      "欺负你了": 9957,
      "//": 9958,
      "TA": 9959,
      "bb": 9960,
      "hy": 9961,
      "大方": 9962,
      "寝室": 9963,
      "我当然": 9964,
      "晕了": 9965,
      "没看": 9966,
      "难听": 9967,
      "驴唇": 9968,
      "鸡屁股": 9969,
      "我不能": 9970,
      "安慰我": 9971,
      "orry": 9972,
      "19": 9973,
      "of": 9974,
      "其中": 9975,
      "多谢": 9976,
      "帅不": 9977,
      "我操": 9978,
      "淫荡": 9979,
      "田某": 9980,
      "科比": 9981,
      "谁让你": 9982,
      "那样": 9983,
      "你是一只": 9984,
      "你个小": 9985,
      "中的战斗鸡": 9986,
      "云帮主": 9987,
      "参数": 9988,
      "多多": 9989,
      "就你": 9990,
      "工程": 9991,
      "牛头": 9992,
      "跟你说话": 9993,
      "骗我": 9994,
      "），": 9995,
      "什么样的": 9996,
      "我也会": 9997,
      "我说的是": 9998,
      "奴才在": 9999
    },
    "merges": [
      [
        "什",
        "么"
      ],
      [
        "。",
        "。"
      ],
      [
        "怎",
        "么"
      ],
      [
        "。",
        "="
      ],
      [
        "=",
        "。="
      ],
      [
        "你",
        "是"
      ],
      [
        "知",
        "道"
      ],
      [
        "我",
        "是"
      ],
      [
        "不",
        "是"
      ],
      [
        "喜",
        "欢"
      ],
      [
        "！",
        "！"
      ],
      [
        "*",
        "*"
      ],
      [
        ".",
        "."
      ],
      [
        "主",
        "人"
      ],
      [
        "小",
        "通"
      ],
      [
        "就",
        "是"
      ],
      [
        "不",
        "要"
      ],
      [
        "呵",
        "呵"
      ],
      [
        "你",
        "的"
      ],
      [
        "一",
        "个"
      ],
      [
        "…",
        "…"
      ],
      [
        "我",
        "的"
      ],
      [
        "没",
        "有"
      ],
      [
        "还",
        "是"
      ],
      [
        "哈",
        "哈"
      ],
      [
        "爱",
        "你"
      ],
      [
        "我",
        "不"
      ],
      [
        "。。",
        "。"
      ],
      [
        "给",
        "我"
      ],
      [
        "你",
        "说"
      ],
      [
        "你",
        "妹"
      ],
      [
        "是",
        "谁"
      ],
      [
        "这",
        "么"
      ],
      [
        "那",
        "你"
      ],
      [
        "当",
        "然"
      ],
      [
        "**",
        "**"
      ],
      [
        "笑",
        "话"
      ],
      [
        "人",
        "家"
      ],
      [
        "不",
        "好"
      ],
      [
        "可",
        "以"
      ],
      [
        "~",
        "~"
      ],
      [
        "不",
        "会"
      ],
      [
        "我",
        "也"
      ],
      [
        "自",
        "己"
      ],
      [
        "错",
        "了"
      ],
      [
        "爱",
        "的"
      ],
      [
        "为",
        "什么"
      ],
      [
        "鸡",
        "鸡"
      ],
      [
        "因",
        "为"
      ],
      [
        "怎么",
        "办"
      ],
      [
        "朋",
        "友"
      ],
      [
        "我",
        "要"
      ],
      [
        "给",
        "你"
      ],
      [
        "你",
        "不"
      ],
      [
        "你",
        "了"
      ],
      [
        "啦",
        "啦"
      ],
      [
        "我",
        "想"
      ],
      [
        "你",
        "有"
      ],
      [
        "我",
        "们"
      ],
      [
        "是",
        "你"
      ],
      [
        "你",
        "怎么"
      ],
      [
        "你",
        "才"
      ],
      [
        "睡",
        "觉"
      ],
      [
        "你",
        "好"
      ],
      [
        "时",
        "候"
      ],
      [
        "真",
        "的"
      ],
      [
        "这",
        "个"
      ],
      [
        "多",
        "少"
      ],
      [
        "傻",
        "逼"
      ],
      [
        "我",
        "说"
      ],
      [
        "可",
        "爱"
      ],
      [
        "干",
        "嘛"
      ],
      [
        "告",
        "诉"
      ],
      [
        "是",
        "什么"
      ],
      [
        "我",
        "就"
      ],
      [
        "好",
        "吧"
      ],
      [
        "呜",
        "呜"
      ],
      [
        "！！",
        "！"
      ],
      [
        "!",
        "!"
      ],
      [
        "好",
        "的"
      ],
      [
        "无",
        "聊"
      ],
      [
        "你",
        "会"
      ],
      [
        "不",
        "知道"
      ],
      [
        "认",
        "识"
      ],
      [
        "回",
        "复"
      ],
      [
        "意",
        "思"
      ],
      [
        "那",
        "么"
      ],
      [
        "现",
        "在"
      ],
      [
        "讨",
        "厌"
      ],
      [
        "开",
        "心"
      ],
      [
        "都",
        "是"
      ],
      [
        "晚",
        "安"
      ],
      [
        "今",
        "天"
      ],
      [
        "么",
        "么"
      ],
      [
        "不",
        "能"
      ],
      [
        "..",
        "."
      ],
      [
        "啊",
        "啊"
      ],
      [
        "你",
        "个"
      ],
      [
        "这",
        "样"
      ],
      [
        "你",
        "猜"
      ],
      [
        "我",
        "在"
      ],
      [
        "运",
        "势"
      ],
      [
        "了",
        "你"
      ],
      [
        "一",
        "起"
      ],
      [
        "是",
        "我"
      ],
      [
        "聊",
        "天"
      ],
      [
        "我",
        "错了"
      ],
      [
        "出",
        "来"
      ],
      [
        "好",
        "吃"
      ],
      [
        "。。",
        "。。"
      ],
      [
        "你",
        "还"
      ],
      [
        "觉",
        "得"
      ],
      [
        "讲",
        "个"
      ],
      [
        "****",
        "**"
      ],
      [
        "我",
        "会"
      ],
      [
        "一",
        "下"
      ],
      [
        "..",
        ".."
      ],
      [
        "那",
        "个"
      ],
      [
        "爸",
        "爸"
      ],
      [
        "你",
        "也"
      ],
      [
        "老",
        "公"
      ],
      [
        "明",
        "天"
      ],
      [
        "的",
        "人"
      ],
      [
        "孩",
        "子"
      ],
      [
        "你",
        "就"
      ],
      [
        "不",
        "到"
      ],
      [
        "我",
        "喜欢"
      ],
      [
        "你",
        "妈"
      ],
      [
        "哪",
        "里"
      ],
      [
        "回",
        "家"
      ],
      [
        "死",
        "了"
      ],
      [
        "我",
        "爱你"
      ],
      [
        "聪",
        "明"
      ],
      [
        "嗯",
        "嗯"
      ],
      [
        "美",
        "女"
      ],
      [
        "一",
        "直"
      ],
      [
        "你",
        "吃"
      ],
      [
        "世",
        "界"
      ],
      [
        "是",
        "个"
      ],
      [
        "宝",
        "贝"
      ],
      [
        "老",
        "婆"
      ],
      [
        "大",
        "爷"
      ],
      [
        "你",
        "知道"
      ],
      [
        "是",
        "的"
      ],
      [
        "和",
        "你"
      ],
      [
        "你",
        "要"
      ],
      [
        "你",
        "喜欢"
      ],
      [
        "不",
        "理"
      ],
      [
        "小",
        "黄"
      ],
      [
        "必",
        "须"
      ],
      [
        "回",
        "答"
      ],
      [
        "怎么",
        "样"
      ],
      [
        "好",
        "好"
      ],
      [
        "问",
        "题"
      ],
      [
        "我",
        "就是"
      ],
      [
        "嘿",
        "嘿"
      ],
      [
        "笨",
        "蛋"
      ],
      [
        "不",
        "起"
      ],
      [
        "亲",
        "爱的"
      ],
      [
        "o",
        "u"
      ],
      [
        "那",
        "就"
      ],
      [
        "谢",
        "谢"
      ],
      [
        "你",
        "不是"
      ],
      [
        "他",
        "们"
      ],
      [
        "了",
        "吗"
      ],
      [
        "男",
        "人"
      ],
      [
        "想",
        "你"
      ],
      [
        "说",
        "话"
      ],
      [
        "爱",
        "我"
      ],
      [
        "女",
        "的"
      ],
      [
        "͡",
        "͡"
      ],
      [
        "如",
        "何"
      ],
      [
        "让",
        "我"
      ],
      [
        "来",
        "了"
      ],
      [
        "，",
        "，"
      ],
      [
        "讲个",
        "笑话"
      ],
      [
        "男",
        "的"
      ],
      [
        "一",
        "样"
      ],
      [
        "没",
        "事"
      ],
      [
        "你",
        "在"
      ],
      [
        "我",
        "好"
      ],
      [
        "我",
        "最"
      ],
      [
        "妈",
        "妈"
      ],
      [
        "关",
        "系"
      ],
      [
        "是",
        "啊"
      ],
      [
        "是",
        "不是"
      ],
      [
        "考",
        "试"
      ],
      [
        "然",
        "后"
      ],
      [
        "你",
        "想"
      ],
      [
        "大",
        "学"
      ],
      [
        "好",
        "了"
      ],
      [
        "当然",
        "是"
      ],
      [
        "木",
        "有"
      ],
      [
        "我",
        "有"
      ],
      [
        "手",
        "机"
      ],
      [
        "那",
        "是"
      ],
      [
        "吃",
        "饭"
      ],
      [
        "还",
        "有"
      ],
      [
        "我",
        "很"
      ],
      [
        "也",
        "不"
      ],
      [
        "母",
        "鸡"
      ],
      [
        "可",
        "是"
      ],
      [
        "一",
        "只"
      ],
      [
        "生",
        "气"
      ],
      [
        "跟",
        "我"
      ],
      [
        "你",
        "真"
      ],
      [
        "一",
        "定"
      ],
      [
        "都",
        "不"
      ],
      [
        "老",
        "师"
      ],
      [
        "s",
        "i"
      ],
      [
        "应",
        "该"
      ],
      [
        "我",
        "还"
      ],
      [
        "喜欢",
        "你"
      ],
      [
        "'",
        "'"
      ],
      [
        "漂",
        "亮"
      ],
      [
        "我",
        "去"
      ],
      [
        "无",
        "敌"
      ],
      [
        "笨",
        "鸡"
      ],
      [
        "可",
        "能"
      ],
      [
        "你",
        "们"
      ],
      [
        "吃",
        "鸡"
      ],
      [
        "把",
        "你"
      ],
      [
        "女",
        "朋友"
      ],
      [
        "跟",
        "你"
      ],
      [
        "帅",
        "哥"
      ],
      [
        "伦",
        "家"
      ],
      [
        "姐",
        "姐"
      ],
      [
        "我",
        "了"
      ],
      [
        "媳",
        "妇"
      ],
      [
        "呵呵",
        "呵呵"
      ],
      [
        "0",
        "0"
      ],
      [
        "儿",
        "子"
      ],
      [
        ",",
        ","
      ],
      [
        "y",
        "ou"
      ],
      [
        "去",
        "了"
      ],
      [
        "特",
        "别"
      ],
      [
        "黄",
        "鸡"
      ],
      [
        "～",
        "～"
      ],
      [
        "我",
        "知道"
      ],
      [
        "a",
        "n"
      ],
      [
        "天",
        "天"
      ],
      [
        "一",
        "点"
      ],
      [
        "我",
        "爱"
      ],
      [
        "别",
        "人"
      ],
      [
        "公",
        "鸡"
      ],
      [
        "o",
        "n"
      ],
      [
        "叫",
        "我"
      ],
      [
        "起",
        "来"
      ],
      [
        "r",
        "e"
      ],
      [
        "哪",
        "个"
      ],
      [
        "女",
        "神"
      ],
      [
        "啦啦",
        "啦"
      ],
      [
        "的",
        "小"
      ],
      [
        "对",
        "不起"
      ],
      [
        "死",
        "鸡"
      ],
      [
        "其",
        "实"
      ],
      [
        "心",
        "情"
      ],
      [
        "我",
        "怎么"
      ],
      [
        "你",
        "又"
      ],
      [
        "的",
        "好"
      ],
      [
        "i",
        "n"
      ],
      [
        "出",
        "去"
      ],
      [
        "好",
        "啊"
      ],
      [
        "的",
        "鸡"
      ],
      [
        "了",
        "吧"
      ],
      [
        "还",
        "不"
      ],
      [
        "我",
        "不是"
      ],
      [
        "肯",
        "定"
      ],
      [
        "这",
        "是"
      ],
      [
        "？",
        "？"
      ],
      [
        "让",
        "你"
      ],
      [
        "中",
        "国"
      ],
      [
        "大",
        "家"
      ],
      [
        "我",
        "没"
      ],
      [
        "问",
        "你"
      ],
      [
        "9",
        "9"
      ],
      [
        "子",
        "座"
      ],
      [
        "超",
        "级"
      ],
      [
        "告诉",
        "你"
      ],
      [
        "回",
        "来"
      ],
      [
        "尼",
        "玛"
      ],
      [
        "多",
        "了"
      ],
      [
        "东",
        "西"
      ],
      [
        "屌",
        "丝"
      ],
      [
        "吃",
        "了"
      ],
      [
        "不",
        "想"
      ],
      [
        "如",
        "果"
      ],
      [
        "你才",
        "是"
      ],
      [
        "有",
        "什么"
      ],
      [
        "永",
        "远"
      ],
      [
        "你",
        "就是"
      ],
      [
        "什么",
        "时候"
      ],
      [
        "休",
        "息"
      ],
      [
        "看",
        "看"
      ],
      [
        "全",
        "家"
      ],
      [
        "你",
        "去"
      ],
      [
        "到",
        "底"
      ],
      [
        "电",
        "话"
      ],
      [
        "那",
        "我"
      ],
      [
        "宝",
        "宝"
      ],
      [
        "不",
        "懂"
      ],
      [
        "说",
        "的"
      ],
      [
        "我",
        "只"
      ],
      [
        "发",
        "现"
      ],
      [
        "以",
        "后"
      ],
      [
        "你",
        "能"
      ],
      [
        "找",
        "不到"
      ],
      [
        "可",
        "爱的"
      ],
      [
        "哥",
        "哥"
      ],
      [
        "两",
        "个"
      ],
      [
        "几",
        "个"
      ],
      [
        "智",
        "商"
      ],
      [
        "运势",
        "如何"
      ],
      [
        "麻",
        "麻"
      ],
      [
        "(",
        "╯"
      ],
      [
        "男",
        "朋友"
      ],
      [
        "名",
        "字"
      ],
      [
        "╰",
        ")"
      ],
      [
        "不",
        "过"
      ],
      [
        "〜",
        "〜"
      ],
      [
        "机",
        "器"
      ],
      [
        "男",
        "生"
      ],
      [
        "不",
        "就是"
      ],
      [
        "?",
        "?"
      ],
      [
        "怎么",
        "了"
      ],
      [
        "时",
        "间"
      ],
      [
        "大",
        "人"
      ],
      [
        "介",
        "绍"
      ],
      [
        "一个",
        "人"
      ],
      [
        "必须",
        "的"
      ],
      [
        "睡",
        "了"
      ],
      [
        "最",
        "爱"
      ],
      [
        "肿",
        "么"
      ],
      [
        "心",
        "里"
      ],
      [
        "万",
        "岁"
      ],
      [
        "学",
        "习"
      ],
      [
        "难",
        "过"
      ],
      [
        "晚",
        "上"
      ],
      [
        "陪",
        "你"
      ],
      [
        "一",
        "般"
      ],
      [
        "计",
        "算"
      ],
      [
        "一",
        "天"
      ],
      [
        "女",
        "人"
      ],
      [
        "妹",
        "纸"
      ],
      [
        "不",
        "行"
      ],
      [
        "是",
        "多少"
      ],
      [
        "si",
        "m"
      ],
      [
        "死",
        "你"
      ],
      [
        "的",
        "时候"
      ],
      [
        "L",
        "Z"
      ],
      [
        "告诉",
        "我"
      ],
      [
        "你",
        "这"
      ],
      [
        "说",
        "了"
      ],
      [
        "好",
        "多"
      ],
      [
        "不",
        "着"
      ],
      [
        "害",
        "羞"
      ],
      [
        "嘻",
        "嘻"
      ],
      [
        "你",
        "大爷"
      ],
      [
        "结",
        "婚"
      ],
      [
        "第",
        "一"
      ],
      [
        "帮",
        "我"
      ],
      [
        "就",
        "不"
      ],
      [
        "哈哈",
        "哈哈"
      ],
      [
        "摩",
        "羯"
      ],
      [
        "你",
        "都"
      ],
      [
        "加",
        "油"
      ],
      [
        "在",
        "一起"
      ],
      [
        "同",
        "学"
      ],
      [
        "所",
        "以"
      ],
      [
        "妹",
        "子"
      ],
      [
        "吃",
        "什么"
      ],
      [
        "说",
        "你"
      ],
      [
        "已",
        "经"
      ],
      [
        "不",
        "对"
      ],
      [
        "神",
        "马"
      ],
      [
        "欺",
        "负"
      ],
      [
        "表",
        "情"
      ],
      [
        "你",
        "最"
      ],
      [
        "射",
        "手"
      ],
      [
        "你",
        "看"
      ],
      [
        "无",
        "语"
      ],
      [
        "我",
        "都"
      ],
      [
        "不",
        "了"
      ],
      [
        "工",
        "作"
      ],
      [
        "m",
        "e"
      ],
      [
        "快",
        "乐"
      ],
      [
        "相",
        "信"
      ],
      [
        "叫",
        "什么"
      ],
      [
        "h",
        "a"
      ],
      [
        "h",
        "e"
      ],
      [
        "鸡",
        "蛋"
      ],
      [
        "怎",
        "样"
      ],
      [
        "卖",
        "萌"
      ],
      [
        "5",
        "5"
      ],
      [
        "宇",
        "宙"
      ],
      [
        "的",
        "事"
      ],
      [
        "你是",
        "不是"
      ],
      [
        "的",
        "是"
      ],
      [
        "对",
        "啊"
      ],
      [
        "你",
        "觉得"
      ],
      [
        "傻",
        "鸡"
      ],
      [
        "故",
        "事"
      ],
      [
        "~~",
        "~"
      ],
      [
        "的",
        "小通"
      ],
      [
        "厉",
        "害"
      ],
      [
        "你",
        "太"
      ],
      [
        "看",
        "不"
      ],
      [
        "幸",
        "福"
      ],
      [
        "调",
        "戏"
      ],
      [
        "饿",
        "了"
      ],
      [
        "计算",
        "鸡"
      ],
      [
        "女",
        "王"
      ],
      [
        "但",
        "是"
      ],
      [
        "摩羯",
        "座"
      ],
      [
        "来",
        "的"
      ],
      [
        "有",
        "人"
      ],
      [
        "二",
        "货"
      ],
      [
        "你",
        "给我"
      ],
      [
        "只",
        "有"
      ],
      [
        "学",
        "校"
      ],
      [
        "妹",
        "妹"
      ],
      [
        "抱",
        "抱"
      ],
      [
        "你",
        "认识"
      ],
      [
        "每",
        "天"
      ],
      [
        "哈哈",
        "哈"
      ],
      [
        "被",
        "你"
      ],
      [
        "肯",
        "德"
      ],
      [
        "？",
        "！"
      ],
      [
        "1",
        "1"
      ],
      [
        "感",
        "觉"
      ],
      [
        "搞",
        "基"
      ],
      [
        "过",
        "来"
      ],
      [
        "好",
        "不好"
      ],
      [
        "射手",
        "座"
      ],
      [
        "不理",
        "我"
      ],
      [
        "͡͡",
        "͡͡"
      ],
      [
        "赶",
        "紧"
      ],
      [
        "找",
        "到"
      ],
      [
        "记",
        "得"
      ],
      [
        "都",
        "知道"
      ],
      [
        "了",
        "一"
      ],
      [
        "陪",
        "我"
      ],
      [
        "我也",
        "是"
      ],
      [
        "l",
        "o"
      ],
      [
        "中",
        "的"
      ],
      [
        "起",
        "床"
      ],
      [
        "干",
        "什么"
      ],
      [
        "等",
        "你"
      ],
      [
        "还",
        "没"
      ],
      [
        "巨",
        "蟹"
      ],
      [
        "....",
        ".."
      ],
      [
        "睡",
        "不着"
      ],
      [
        "肯德",
        "基"
      ],
      [
        "￣",
        "︶"
      ],
      [
        "他",
        "是"
      ],
      [
        "￣︶",
        "￣"
      ],
      [
        "你",
        "丫"
      ],
      [
        "不",
        "敢"
      ],
      [
        "的",
        "话"
      ],
      [
        "努",
        "力"
      ],
      [
        "不",
        "喜欢"
      ],
      [
        "在",
        "你"
      ],
      [
        "电",
        "视"
      ],
      [
        "公",
        "的"
      ],
      [
        "我",
        "猜"
      ],
      [
        "对",
        "象"
      ],
      [
        "爱",
        "情"
      ],
      [
        "＼",
        "（"
      ],
      [
        "(",
        "^"
      ],
      [
        "＼（",
        "￣︶￣"
      ],
      [
        "楼",
        "主"
      ],
      [
        "）",
        "／"
      ],
      [
        "我是",
        "计算鸡"
      ],
      [
        "＼（￣︶￣",
        "）／"
      ],
      [
        "你",
        "很"
      ],
      [
        "看",
        "到"
      ],
      [
        "需",
        "要"
      ],
      [
        "大",
        "的"
      ],
      [
        "安",
        "慰"
      ],
      [
        "美",
        "丽"
      ],
      [
        "你妹",
        "啊"
      ],
      [
        "2",
        "0"
      ],
      [
        "天",
        "蝎"
      ],
      [
        "才",
        "是"
      ],
      [
        "辈",
        "子"
      ],
      [
        "星",
        "座"
      ],
      [
        "o",
        "o"
      ],
      [
        "和",
        "我"
      ],
      [
        "不",
        "得"
      ],
      [
        "着",
        "你"
      ],
      [
        "i",
        "s"
      ],
      [
        "伤",
        "心"
      ],
      [
        "了",
        "么"
      ],
      [
        "基",
        "友"
      ],
      [
        "有",
        "我"
      ],
      [
        "找",
        "你"
      ],
      [
        "l",
        "e"
      ],
      [
        "开",
        "始"
      ],
      [
        "生气",
        "了"
      ],
      [
        "说",
        "什么"
      ],
      [
        "比",
        "你"
      ],
      [
        "这么",
        "快"
      ],
      [
        "^",
        ")"
      ],
      [
        "你",
        "全家"
      ],
      [
        "8",
        "8"
      ],
      [
        "很",
        "多"
      ],
      [
        "听",
        "听"
      ],
      [
        "好",
        "看"
      ],
      [
        "不",
        "许"
      ],
      [
        "在",
        "哪"
      ],
      [
        "我",
        "妹"
      ],
      [
        "不",
        "错"
      ],
      [
        "洗",
        "澡"
      ],
      [
        "呜呜",
        "呜"
      ],
      [
        "自",
        "动"
      ],
      [
        "啊啊",
        "啊啊"
      ],
      [
        "原",
        "谅"
      ],
      [
        "你",
        "爱"
      ],
      [
        "她",
        "们"
      ],
      [
        "正",
        "在"
      ],
      [
        "也",
        "是"
      ],
      [
        "屁",
        "股"
      ],
      [
        "。",
        "，"
      ],
      [
        "叽",
        "叽"
      ],
      [
        "快",
        "点"
      ],
      [
        "好",
        "玩"
      ],
      [
        "有",
        "一"
      ],
      [
        "巨蟹",
        "座"
      ],
      [
        "我是",
        "你"
      ],
      [
        "电",
        "脑"
      ],
      [
        "你",
        "家"
      ],
      [
        "贱",
        "鸡"
      ],
      [
        "!!",
        "!"
      ],
      [
        "放",
        "假"
      ],
      [
        "下",
        "蛋"
      ],
      [
        "最",
        "近"
      ],
      [
        "水",
        "瓶"
      ],
      [
        "以",
        "为"
      ],
      [
        "来",
        "吧"
      ],
      [
        "蘑",
        "菇"
      ],
      [
        "我不",
        "会"
      ],
      [
        "为",
        "啥"
      ],
      [
        "粑",
        "粑"
      ],
      [
        "女",
        "生"
      ],
      [
        "唧",
        "唧"
      ],
      [
        "(",
        ">"
      ],
      [
        "难",
        "道"
      ],
      [
        "乖",
        "乖"
      ],
      [
        "v",
        "e"
      ],
      [
        "世界",
        "上"
      ],
      [
        "来",
        "个"
      ],
      [
        "累",
        "了"
      ],
      [
        "多",
        "大"
      ],
      [
        "你",
        "可以"
      ],
      [
        "吃",
        "我"
      ],
      [
        "！！",
        "！！"
      ],
      [
        "你",
        "自己"
      ],
      [
        "说",
        "个"
      ],
      [
        "b",
        "a"
      ],
      [
        "只",
        "是"
      ],
      [
        "过",
        "年"
      ],
      [
        "垃",
        "圾"
      ],
      [
        "在",
        "我"
      ],
      [
[...]
